unsigned char sine_model[] = {
  0x20, 0x00, 0x00, 0x00, 0x54, 0x46, 0x4c, 0x33, 0x00, 0x00, 0x00, 0x00,
  0x00, 0x00, 0x12, 0x00, 0x1c, 0x00, 0x04, 0x00, 0x08, 0x00, 0x0c, 0x00,
  0x10, 0x00, 0x14, 0x00, 0x00, 0x00, 0x18, 0x00, 0x12, 0x00, 0x00, 0x00,
  0x03, 0x00, 0x00, 0x00, 0x98, 0x0a, 0x00, 0x00, 0x68, 0x06, 0x00, 0x00,
  0x50, 0x06, 0x00, 0x00, 0x3c, 0x00, 0x00, 0x00, 0x04, 0x00, 0x00, 0x00,
  0x01, 0x00, 0x00, 0x00, 0x0c, 0x00, 0x00, 0x00, 0x08, 0x00, 0x0c, 0x00,
  0x04, 0x00, 0x08, 0x00, 0x08, 0x00, 0x00, 0x00, 0x08, 0x00, 0x00, 0x00,
  0x0b, 0x00, 0x00, 0x00, 0x13, 0x00, 0x00, 0x00, 0x6d, 0x69, 0x6e, 0x5f,
  0x72, 0x75, 0x6e, 0x74, 0x69, 0x6d, 0x65, 0x5f, 0x76, 0x65, 0x72, 0x73,
  0x69, 0x6f, 0x6e, 0x00, 0x0c, 0x00, 0x00, 0x00, 0x08, 0x06, 0x00, 0x00,
  0xf4, 0x05, 0x00, 0x00, 0x98, 0x05, 0x00, 0x00, 0x34, 0x05, 0x00, 0x00,
  0x20, 0x05, 0x00, 0x00, 0xcc, 0x04, 0x00, 0x00, 0xb8, 0x00, 0x00, 0x00,
  0x64, 0x00, 0x00, 0x00, 0x58, 0x00, 0x00, 0x00, 0x44, 0x00, 0x00, 0x00,
  0x30, 0x00, 0x00, 0x00, 0x04, 0x00, 0x00, 0x00, 0x96, 0xfa, 0xff, 0xff,
  0x04, 0x00, 0x00, 0x00, 0x10, 0x00, 0x00, 0x00, 0x31, 0x2e, 0x35, 0x2e,
  0x30, 0x00, 0x00, 0x00, 0x00, 0x00, 0x00, 0x00, 0x00, 0x00, 0x00, 0x00,
  0x00, 0x00, 0x00, 0x00, 0x00, 0x00, 0x00, 0x00, 0x00, 0x00, 0x00, 0x00,
  0x30, 0xf6, 0xff, 0xff, 0x00, 0x00, 0x00, 0x00, 0x00, 0x00, 0x00, 0x00,
  0x00, 0x00, 0x00, 0x00, 0x40, 0xf6, 0xff, 0xff, 0x00, 0x00, 0x00, 0x00,
  0x00, 0x00, 0x00, 0x00, 0x00, 0x00, 0x00, 0x00, 0x50, 0xf6, 0xff, 0xff,
  0x00, 0x00, 0x00, 0x00, 0xe6, 0xfa, 0xff, 0xff, 0x04, 0x00, 0x00, 0x00,
  0x40, 0x00, 0x00, 0x00, 0x9c, 0x20, 0x75, 0x3e, 0xd9, 0x1f, 0xe5, 0x3d,
  0x05, 0xad, 0xe9, 0xbe, 0xea, 0x8b, 0x73, 0xbf, 0x75, 0x3c, 0xa5, 0xbe,
  0x9f, 0xc4, 0x07, 0x3f, 0x0e, 0xa5, 0xa8, 0xbe, 0xfc, 0x89, 0x0a, 0xbf,
  0x8b, 0x61, 0x14, 0x3f, 0xfb, 0x0e, 0xdb, 0x3f, 0x20, 0x51, 0x95, 0xbe,
  0xe8, 0xca, 0xc5, 0xbe, 0xff, 0x11, 0xd7, 0x3f, 0x89, 0xe8, 0x12, 0xbf,
  0xc0, 0x6a, 0x66, 0xbf, 0xde, 0x72, 0x12, 0x3f, 0x00, 0x00, 0x00, 0x00,
  0x36, 0xfb, 0xff, 0xff, 0x04, 0x00, 0x00, 0x00, 0x00, 0x04, 0x00, 0x00,
  0xd3, 0x2d, 0xa2, 0xbe, 0x57, 0x36, 0xb2, 0xbe, 0x75, 0x92, 0x9c, 0xbd,
  0x52, 0x38, 0xf5, 0x3c, 0xdf, 0x66, 0xdd, 0x3e, 0x00, 0x0a, 0xf6, 0xbc,
  0x3a, 0x0c, 0x2d, 0xbe, 0xe6, 0x62, 0x15, 0xbe, 0xfa, 0xd0, 0x9f, 0xbe,
  0x70, 0x12, 0xe8, 0xbc, 0x8d, 0xd5, 0xc9, 0x3e, 0xdc, 0x11, 0x96, 0xbe,
  0x2e, 0x68, 0x7f, 0x3e, 0x26, 0x4a, 0x0c, 0x3e, 0xd3, 0xab, 0x81, 0x3d,
  0xe6, 0x92, 0x3a, 0xbe, 0xdc, 0x26, 0x8e, 0xbe, 0xc2, 0x18, 0x78, 0xbe,
  0xd6, 0x9d, 0xd0, 0xbe, 0xa1, 0xec, 0x99, 0xbd, 0xad, 0xd7, 0xaa, 0xbe,
  0x27, 0x97, 0xae, 0x3e, 0x04, 0xab, 0x8f, 0x3d, 0x0c, 0xf4, 0xe6, 0x3d,
  0x82, 0xd0, 0x35, 0x3e, 0xa9, 0xce, 0x80, 0xbe, 0xa3, 0x6e, 0x96, 0x3e,
  0x45, 0x04, 0x83, 0x3e, 0x0b, 0xc0, 0x99, 0x3e, 0x6e, 0xf5, 0x07, 0x3e,
  0x57, 0x37, 0xc7, 0x3d, 0x0b, 0x38, 0x5e, 0xbe, 0xac, 0xdd, 0x54, 0xbe,
  0x90, 0x33, 0xd7, 0x3c, 0x09, 0xd4, 0x44, 0x3e, 0xd3, 0x07, 0x28, 0x3f,
  0xe9, 0xb8, 0xd7, 0xbe, 0x26, 0x7b, 0x80, 0x3e, 0x6a, 0xbe, 0xa5, 0xbe,
  0x98, 0x7c, 0xbe, 0xbd, 0xcd, 0x35, 0xc5, 0x3e, 0xb7, 0xc9, 0x84, 0x3e,
  0x2c, 0xf6, 0xa1, 0xbe, 0xf3, 0xc1, 0x7c, 0x3e, 0xac, 0x02, 0xb4, 0x3d,
  0xc0, 0x9f, 0x7c, 0xbc, 0x20, 0x79, 0x64, 0xbd, 0x3a, 0x33, 0x37, 0x3e,
  0x9f, 0xa9, 0xc3, 0x3e, 0xed, 0x5f, 0xba, 0x3e, 0xad, 0x99, 0x11, 0xbf,
  0xdb, 0x5d, 0x18, 0x3f, 0x26, 0x5b, 0x05, 0x3e, 0xfa, 0x38, 0xbc, 0xbe,
  0xc5, 0x6f, 0xbd, 0xbe, 0x44, 0x77, 0xd4, 0xbd, 0xe8, 0xed, 0x03, 0xbd,
  0x99, 0x7a, 0xba, 0x3e, 0xc0, 0xf8, 0xac, 0xbd, 0xf0, 0xdb, 0x3a, 0xbe,
  0xa9, 0x32, 0xaf, 0x3e, 0xc2, 0xca, 0x7e, 0xbe, 0xd9, 0x1d, 0x05, 0x3f,
  0xce, 0xb0, 0x36, 0xbf, 0x26, 0x84, 0xc7, 0xbe, 0x80, 0x52, 0x20, 0x3b,
  0xe8, 0x0c, 0x71, 0x3e, 0x69, 0xdd, 0x42, 0x3e, 0xa6, 0x32, 0x52, 0xbe,
  0x00, 0x15, 0x47, 0x3e, 0x28, 0xe0, 0x70, 0x3d, 0x23, 0xbc, 0x3e, 0xbe,
  0x7c, 0xee, 0xab, 0x3d, 0xdc, 0x9e, 0xd8, 0x3d, 0x22, 0xe1, 0x78, 0x3e,
  0x0e, 0x5e, 0x8c, 0x3e, 0x42, 0x99, 0x3a, 0x3e, 0x80, 0xbf, 0x0b, 0xbd,
  0xcb, 0xae, 0xdd, 0x3e, 0x7a, 0x37, 0x5c, 0x3e, 0xa2, 0xa5, 0xb4, 0xbe,
  0xb4, 0xea, 0xde, 0x3d, 0x39, 0x0c, 0xe3, 0xbe, 0xea, 0x52, 0x0e, 0x3d,
  0xc0, 0xfc, 0xb1, 0xbe, 0x38, 0x3a, 0xb6, 0xbe, 0xd3, 0xd8, 0x92, 0x3e,
  0x58, 0xb4, 0x6d, 0x3d, 0xcd, 0xc8, 0x88, 0x3e, 0xb8, 0x1f, 0xa2, 0xbd,
  0xf8, 0xb0, 0x26, 0x3d, 0xfe, 0x2c, 0xb5, 0xbe, 0x90, 0x4c, 0xc5, 0xbe,
  0x5a, 0xbe, 0x9e, 0xbe, 0x39, 0x61, 0x1e, 0x3d, 0xe6, 0x7c, 0x75, 0x3e,
  0x52, 0xee, 0x71, 0x3e, 0xc7, 0x08, 0xbc, 0x3e, 0xf4, 0xe4, 0x9d, 0xbe,
  0x67, 0xaf, 0x06, 0x3c, 0x8a, 0x3b, 0x39, 0x3e, 0xea, 0x2d, 0x68, 0xbe,
  0x9a, 0x96, 0x17, 0x3e, 0x2f, 0xc2, 0x88, 0x3e, 0xcd, 0x7c, 0x93, 0x3e,
  0x8f, 0xa7, 0xd9, 0x3e, 0x0b, 0x20, 0xcc, 0x3e, 0xb6, 0x29, 0x96, 0xbe,
  0xb0, 0x38, 0xb1, 0x3c, 0x3a, 0x8e, 0x83, 0xbe, 0x40, 0xfc, 0x5b, 0x3c,
  0xe1, 0x1f, 0x88, 0x3e, 0xc0, 0x95, 0xee, 0x3c, 0x6b, 0x09, 0x91, 0xbe,
  0x87, 0x6d, 0x34, 0x3d, 0x60, 0x2b, 0x11, 0x3d, 0xca, 0x6a, 0x09, 0x3e,
  0xc3, 0xb7, 0x42, 0xbe, 0x56, 0xf9, 0xd7, 0xbe, 0x06, 0xdd, 0x1a, 0x3e,
  0x70, 0x3b, 0xa4, 0xbe, 0xe2, 0x78, 0xb9, 0xbe, 0xf4, 0x12, 0xea, 0x3d,
  0x7e, 0x76, 0x56, 0xbd, 0x07, 0xde, 0xd4, 0x3e, 0xa0, 0x2d, 0xf5, 0x3c,
  0x25, 0xdb, 0x17, 0x3f, 0x02, 0x8f, 0xa5, 0xbd, 0x1f, 0xa7, 0xcd, 0x3e,
  0xbd, 0xb3, 0xbf, 0xbe, 0xc6, 0x51, 0x58, 0x3e, 0x89, 0x24, 0x4b, 0xbf,
  0x38, 0x9c, 0x11, 0x3d, 0x98, 0xc5, 0xd5, 0x3e, 0x02, 0x65, 0x38, 0x3e,
  0x12, 0x89, 0x30, 0x3e, 0x90, 0x07, 0xa8, 0xbe, 0x6a, 0x68, 0x26, 0x3e,
  0xd4, 0x5c, 0xaa, 0xbd, 0xbc, 0x1c, 0x1f, 0xbe, 0x14, 0x21, 0xd6, 0xbd,
  0x0c, 0xd0, 0xc9, 0xbd, 0xb7, 0x75, 0x27, 0xbf, 0x53, 0x88, 0x90, 0x3e,
  0xa7, 0x96, 0x94, 0x3e, 0x8c, 0x7c, 0xb3, 0xbe, 0xe7, 0xff, 0x38, 0x3d,
  0x15, 0x3d, 0x24, 0x3f, 0x7f, 0xa6, 0xb3, 0x3e, 0x17, 0xc1, 0x88, 0xbf,
  0x1e, 0x82, 0x4d, 0x3e, 0xc3, 0xe6, 0xc1, 0x3e, 0xf3, 0x5b, 0x87, 0x3e,
  0xbf, 0x52, 0xab, 0xbe, 0xc5, 0xde, 0xb3, 0x3e, 0x21, 0xb6, 0x94, 0xbf,
  0x74, 0xcf, 0x90, 0x3d, 0x5c, 0x50, 0x6d, 0xbe, 0x57, 0x33, 0x49, 0x3f,
  0x8d, 0x81, 0xbe, 0xbe, 0x9e, 0x93, 0x3c, 0x3e, 0x5c, 0xe8, 0x8a, 0xbd,
  0x4d, 0x66, 0xa1, 0xbe, 0x82, 0x3c, 0x2b, 0x3e, 0xc4, 0x41, 0xc0, 0xbe,
  0x0a, 0x6f, 0x50, 0x3e, 0x20, 0x2c, 0xad, 0xbe, 0xbc, 0x5c, 0xab, 0x3d,
  0xe0, 0x61, 0x52, 0xbe, 0xc4, 0xb3, 0xb7, 0x3d, 0x99, 0xdc, 0x8d, 0x3e,
  0x9a, 0xb5, 0x4a, 0x3e, 0x58, 0x35, 0x03, 0x3d, 0xe2, 0xcd, 0x42, 0xbe,
  0x36, 0x55, 0x82, 0xbe, 0x2a, 0xb3, 0x36, 0xbe, 0x80, 0x13, 0x4b, 0xbd,
  0x14, 0xff, 0xa3, 0x3d, 0x12, 0xe2, 0xfd, 0x3c, 0xd5, 0x5f, 0x03, 0x3f,
  0xab, 0x07, 0xaa, 0x3e, 0x9c, 0x38, 0x10, 0xbf, 0x00, 0xd0, 0x19, 0x39,
  0x22, 0x7c, 0x9a, 0xbe, 0xfc, 0xfe, 0x44, 0xbe, 0x9d, 0xa2, 0xac, 0x3e,
  0x8e, 0xa1, 0x1b, 0x3e, 0x00, 0x0b, 0xca, 0xbe, 0x54, 0x4a, 0xad, 0x3d,
  0x0f, 0x8f, 0x8c, 0x3e, 0x66, 0x9d, 0x04, 0x3f, 0x8d, 0x29, 0x32, 0xbd,
  0xbc, 0xa2, 0xb5, 0x3d, 0x9e, 0xfa, 0x32, 0x3e, 0xa7, 0xb3, 0xc5, 0x3e,
  0x9a, 0xed, 0xd1, 0xbf, 0x56, 0x1e, 0x3e, 0x3e, 0x26, 0x9f, 0x3e, 0x3e,
  0x24, 0xb3, 0xbd, 0x3d, 0xb8, 0x9f, 0x95, 0xbe, 0x80, 0x05, 0x48, 0xbc,
  0xf9, 0x7d, 0xcb, 0xbe, 0x66, 0xdb, 0x24, 0x3e, 0x86, 0xaa, 0x69, 0x3e,
  0x5c, 0x32, 0xd3, 0x3d, 0x79, 0x95, 0x89, 0x3e, 0x88, 0x54, 0xbc, 0xbe,
  0xaa, 0xa6, 0x02, 0xbe, 0x3d, 0xce, 0xc8, 0x3e, 0x7a, 0x20, 0x23, 0xbe,
  0xb2, 0x4a, 0xc2, 0xbe, 0x46, 0x08, 0x16, 0x3e, 0x17, 0x75, 0x6c, 0xbe,
  0x47, 0x73, 0x87, 0x3e, 0x8a, 0x37, 0x61, 0x3e, 0x4c, 0x54, 0x86, 0xbd,
  0x4b, 0x1b, 0x9c, 0x3e, 0x20, 0x33, 0xd7, 0x3c, 0x5d, 0x96, 0xca, 0xbe,
  0x86, 0x82, 0x4b, 0x3e, 0x55, 0xce, 0x84, 0x3e, 0x25, 0x5f, 0xb6, 0x3e,
  0x91, 0x74, 0xdd, 0xbe, 0xca, 0xe2, 0x8c, 0xbe, 0xa9, 0xfd, 0xcf, 0x3e,
  0x34, 0x1a, 0xa4, 0x3d, 0xfb, 0xa4, 0xd0, 0xbe, 0x3e, 0xab, 0xfb, 0x3e,
  0x00, 0xe8, 0xa1, 0xbc, 0xec, 0x2e, 0xaf, 0xbe, 0xa2, 0xee, 0xd5, 0xbe,
  0x95, 0x5b, 0x40, 0xbe, 0xa7, 0x32, 0x79, 0xbe, 0xe1, 0x74, 0xa7, 0x3e,
  0x63, 0x1f, 0xac, 0xbe, 0x05, 0x88, 0xbd, 0xbe, 0xe7, 0xb3, 0x99, 0x3e,
  0xb6, 0x67, 0x7d, 0x3e, 0x40, 0x71, 0x41, 0x3e, 0xa6, 0x7d, 0x5e, 0xbf,
  0x5d, 0x22, 0xbe, 0x3e, 0x01, 0x7b, 0xdd, 0x3e, 0x3c, 0x7d, 0xc8, 0x3e,
  0x3f, 0x82, 0x2b, 0xbe, 0x12, 0xd5, 0x4e, 0x3e, 0x5c, 0x09, 0x10, 0x3e,
  0x12, 0xf9, 0x26, 0x3e, 0x11, 0xb2, 0xb3, 0x3e, 0x68, 0xbc, 0xfb, 0xbd,
  0xa6, 0x17, 0x4e, 0x3e, 0x93, 0xa9, 0xa7, 0x3e, 0x76, 0x66, 0x94, 0x3e,
  0xc2, 0x37, 0x12, 0xbe, 0xb0, 0x57, 0x7e, 0x3d, 0xb1, 0xea, 0x57, 0xbc,
  0x55, 0x5d, 0xf4, 0xbd, 0x00, 0x00, 0x00, 0x00, 0x46, 0xff, 0xff, 0xff,
  0x04, 0x00, 0x00, 0x00, 0x40, 0x00, 0x00, 0x00, 0x06, 0x6c, 0xbf, 0xbe,
  0x10, 0xf8, 0x3c, 0xbd, 0x36, 0xb7, 0xeb, 0x3e, 0xdc, 0x6e, 0xb3, 0xbd,
  0xb0, 0xb5, 0x98, 0xbd, 0xb2, 0x51, 0x1e, 0x3e, 0x44, 0xfc, 0xe8, 0xbd,
  0xdf, 0xe6, 0xa0, 0xbe, 0xf9, 0xdd, 0xa7, 0xbe, 0x2a, 0x7b, 0xf6, 0xbe,
  0xb0, 0xc9, 0x7b, 0xbd, 0x64, 0x19, 0x11, 0x3e, 0xe0, 0x67, 0xa4, 0xbc,
  0x62, 0x6c, 0x0c, 0xbf, 0xcc, 0x57, 0x34, 0xbd, 0x6f, 0x72, 0x09, 0x3f,
  0x00, 0x00, 0x00, 0x00, 0x96, 0xff, 0xff, 0xff, 0x04, 0x00, 0x00, 0x00,
  0x04, 0x00, 0x00, 0x00, 0xb8, 0x0d, 0xfd, 0xbd, 0xa6, 0xff, 0xff, 0xff,
  0x04, 0x00, 0x00, 0x00, 0x40, 0x00, 0x00, 0x00, 0x63, 0x22, 0xa8, 0xbd,
  0xfd, 0x2c, 0x68, 0xbd, 0xc4, 0x85, 0x3a, 0x3d, 0x4c, 0x27, 0xa8, 0x3e,
  0xd5, 0x7e, 0xa6, 0xbc, 0x4b, 0xc8, 0x75, 0xbd, 0x63, 0x9b, 0x08, 0xbd,
  0x63, 0x53, 0xf7, 0x3d, 0xdd, 0x6d, 0x39, 0xbe, 0x53, 0xdd, 0x2b, 0x3f,
  0x00, 0x00, 0x00, 0x00, 0x20, 0xfb, 0x67, 0x3e, 0xc0, 0xc2, 0x82, 0xbe,
  0x00, 0x00, 0x00, 0x00, 0x12, 0x64, 0x7a, 0x3e, 0x68, 0x8d, 0xe1, 0xbd,
  0x00, 0x00, 0x00, 0x00, 0x00, 0x00, 0x00, 0x00, 0x00, 0x00, 0x00, 0x00,
  0x00, 0x00, 0x06, 0x00, 0x08, 0x00, 0x04, 0x00, 0x06, 0x00, 0x00, 0x00,
  0x04, 0x00, 0x00, 0x00, 0x40, 0x00, 0x00, 0x00, 0x00, 0x00, 0x00, 0x00,
  0x00, 0x00, 0x00, 0x00, 0x1b, 0xa3, 0x67, 0xbb, 0xd4, 0x6b, 0x17, 0x3f,
  0x00, 0x00, 0x00, 0x00, 0x74, 0xa5, 0xca, 0xbe, 0x00, 0x00, 0x00, 0x00,
  0x00, 0x00, 0x00, 0x00, 0x00, 0x00, 0x00, 0x00, 0x00, 0x00, 0x00, 0x00,
  0x00, 0x00, 0x00, 0x00, 0x77, 0x73, 0xa1, 0xbe, 0x00, 0x00, 0x00, 0x00,
  0x00, 0x00, 0x00, 0x00, 0x3c, 0x86, 0x80, 0x3f, 0xea, 0xe7, 0x31, 0xbb,
  0x00, 0x00, 0x00, 0x00, 0x00, 0x00, 0x00, 0x00, 0x00, 0x00, 0x00, 0x00,
  0xd0, 0xfb, 0xff, 0xff, 0x00, 0x00, 0x00, 0x00, 0x00, 0x00, 0x00, 0x00,
  0x00, 0x00, 0x00, 0x00, 0xe0, 0xfb, 0xff, 0xff, 0x0f, 0x00, 0x00, 0x00,
  0x4d, 0x4c, 0x49, 0x52, 0x20, 0x43, 0x6f, 0x6e, 0x76, 0x65, 0x72, 0x74,
  0x65, 0x64, 0x2e, 0x00, 0x01, 0x00, 0x00, 0x00, 0x14, 0x00, 0x00, 0x00,
  0x00, 0x00, 0x0e, 0x00, 0x18, 0x00, 0x04, 0x00, 0x08, 0x00, 0x0c, 0x00,
  0x10, 0x00, 0x14, 0x00, 0x0e, 0x00, 0x00, 0x00, 0x00, 0x01, 0x00, 0x00,
  0xf4, 0x00, 0x00, 0x00, 0xe8, 0x00, 0x00, 0x00, 0x14, 0x00, 0x00, 0x00,
  0x04, 0x00, 0x00, 0x00, 0x04, 0x00, 0x00, 0x00, 0x6d, 0x61, 0x69, 0x6e,
  0x00, 0x00, 0x00, 0x00, 0x03, 0x00, 0x00, 0x00, 0x90, 0x00, 0x00, 0x00,
  0x48, 0x00, 0x00, 0x00, 0x04, 0x00, 0x00, 0x00, 0xce, 0xff, 0xff, 0xff,
  0x00, 0x00, 0x00, 0x08, 0x18, 0x00, 0x00, 0x00, 0x0c, 0x00, 0x00, 0x00,
  0x04, 0x00, 0x00, 0x00, 0x58, 0xfc, 0xff, 0xff, 0x01, 0x00, 0x00, 0x00,
  0x09, 0x00, 0x00, 0x00, 0x03, 0x00, 0x00, 0x00, 0x08, 0x00, 0x00, 0x00,
  0x06, 0x00, 0x00, 0x00, 0x03, 0x00, 0x00, 0x00, 0x00, 0x00, 0x0e, 0x00,
  0x14, 0x00, 0x00, 0x00, 0x08, 0x00, 0x0c, 0x00, 0x07, 0x00, 0x10, 0x00,
  0x0e, 0x00, 0x00, 0x00, 0x00, 0x00, 0x00, 0x08, 0x1c, 0x00, 0x00, 0x00,
  0x10, 0x00, 0x00, 0x00, 0x04, 0x00, 0x00, 0x00, 0xba, 0xff, 0xff, 0xff,
  0x00, 0x00, 0x00, 0x01, 0x01, 0x00, 0x00, 0x00, 0x08, 0x00, 0x00, 0x00,
  0x03, 0x00, 0x00, 0x00, 0x07, 0x00, 0x00, 0x00, 0x05, 0x00, 0x00, 0x00,
  0x02, 0x00, 0x00, 0x00, 0x00, 0x00, 0x0e, 0x00, 0x16, 0x00, 0x00, 0x00,
  0x08, 0x00, 0x0c, 0x00, 0x07, 0x00, 0x10, 0x00, 0x0e, 0x00, 0x00, 0x00,
  0x00, 0x00, 0x00, 0x08, 0x24, 0x00, 0x00, 0x00, 0x18, 0x00, 0x00, 0x00,
  0x0c, 0x00, 0x00, 0x00, 0x00, 0x00, 0x06, 0x00, 0x08, 0x00, 0x07, 0x00,
  0x06, 0x00, 0x00, 0x00, 0x00, 0x00, 0x00, 0x01, 0x01, 0x00, 0x00, 0x00,
  0x07, 0x00, 0x00, 0x00, 0x03, 0x00, 0x00, 0x00, 0x00, 0x00, 0x00, 0x00,
  0x04, 0x00, 0x00, 0x00, 0x01, 0x00, 0x00, 0x00, 0x01, 0x00, 0x00, 0x00,
  0x09, 0x00, 0x00, 0x00, 0x01, 0x00, 0x00, 0x00, 0x00, 0x00, 0x00, 0x00,
  0x0a, 0x00, 0x00, 0x00, 0xd4, 0x02, 0x00, 0x00, 0x74, 0x02, 0x00, 0x00,
  0x20, 0x02, 0x00, 0x00, 0xcc, 0x01, 0x00, 0x00, 0x88, 0x01, 0x00, 0x00,
  0x40, 0x01, 0x00, 0x00, 0xf8, 0x00, 0x00, 0x00, 0x9c, 0x00, 0x00, 0x00,
  0x3c, 0x00, 0x00, 0x00, 0x04, 0x00, 0x00, 0x00, 0x62, 0xfd, 0xff, 0xff,
  0x24, 0x00, 0x00, 0x00, 0x0a, 0x00, 0x00, 0x00, 0x0c, 0x00, 0x00, 0x00,
  0x04, 0x00, 0x00, 0x00, 0x54, 0xfd, 0xff, 0xff, 0x08, 0x00, 0x00, 0x00,
  0x49, 0x64, 0x65, 0x6e, 0x74, 0x69, 0x74, 0x79, 0x00, 0x00, 0x00, 0x00,
  0x02, 0x00, 0x00, 0x00, 0x01, 0x00, 0x00, 0x00, 0x01, 0x00, 0x00, 0x00,
  0x96, 0xfd, 0xff, 0xff, 0x4c, 0x00, 0x00, 0x00, 0x09, 0x00, 0x00, 0x00,
  0x0c, 0x00, 0x00, 0x00, 0x04, 0x00, 0x00, 0x00, 0x88, 0xfd, 0xff, 0xff,
  0x32, 0x00, 0x00, 0x00, 0x73, 0x65, 0x71, 0x75, 0x65, 0x6e, 0x74, 0x69,
  0x61, 0x6c, 0x2f, 0x64, 0x65, 0x6e, 0x73, 0x65, 0x5f, 0x31, 0x2f, 0x52,
  0x65, 0x6c, 0x75, 0x3b, 0x73, 0x65, 0x71, 0x75, 0x65, 0x6e, 0x74, 0x69,
  0x61, 0x6c, 0x2f, 0x64, 0x65, 0x6e, 0x73, 0x65, 0x5f, 0x31, 0x2f, 0x42,
  0x69, 0x61, 0x73, 0x41, 0x64, 0x64, 0x00, 0x00, 0x02, 0x00, 0x00, 0x00,
  0x01, 0x00, 0x00, 0x00, 0x10, 0x00, 0x00, 0x00, 0xf2, 0xfd, 0xff, 0xff,
  0x48, 0x00, 0x00, 0x00, 0x08, 0x00, 0x00, 0x00, 0x0c, 0x00, 0x00, 0x00,
  0x04, 0x00, 0x00, 0x00, 0xe4, 0xfd, 0xff, 0xff, 0x2e, 0x00, 0x00, 0x00,
  0x73, 0x65, 0x71, 0x75, 0x65, 0x6e, 0x74, 0x69, 0x61, 0x6c, 0x2f, 0x64,
  0x65, 0x6e, 0x73, 0x65, 0x2f, 0x52, 0x65, 0x6c, 0x75, 0x3b, 0x73, 0x65,
  0x71, 0x75, 0x65, 0x6e, 0x74, 0x69, 0x61, 0x6c, 0x2f, 0x64, 0x65, 0x6e,
  0x73, 0x65, 0x2f, 0x42, 0x69, 0x61, 0x73, 0x41, 0x64, 0x64, 0x00, 0x00,
  0x02, 0x00, 0x00, 0x00, 0x01, 0x00, 0x00, 0x00, 0x10, 0x00, 0x00, 0x00,
  0x4a, 0xfe, 0xff, 0xff, 0x34, 0x00, 0x00, 0x00, 0x07, 0x00, 0x00, 0x00,
  0x0c, 0x00, 0x00, 0x00, 0x04, 0x00, 0x00, 0x00, 0x3c, 0xfe, 0xff, 0xff,
  0x19, 0x00, 0x00, 0x00, 0x73, 0x65, 0x71, 0x75, 0x65, 0x6e, 0x74, 0x69,
  0x61, 0x6c, 0x2f, 0x64, 0x65, 0x6e, 0x73, 0x65, 0x5f, 0x32, 0x2f, 0x4d,
  0x61, 0x74, 0x4d, 0x75, 0x6c, 0x00, 0x00, 0x00, 0x02, 0x00, 0x00, 0x00,
  0x01, 0x00, 0x00, 0x00, 0x10, 0x00, 0x00, 0x00, 0x8e, 0xfe, 0xff, 0xff,
  0x34, 0x00, 0x00, 0x00, 0x06, 0x00, 0x00, 0x00, 0x0c, 0x00, 0x00, 0x00,
  0x04, 0x00, 0x00, 0x00, 0x80, 0xfe, 0xff, 0xff, 0x19, 0x00, 0x00, 0x00,
  0x73, 0x65, 0x71, 0x75, 0x65, 0x6e, 0x74, 0x69, 0x61, 0x6c, 0x2f, 0x64,
  0x65, 0x6e, 0x73, 0x65, 0x5f, 0x31, 0x2f, 0x4d, 0x61, 0x74, 0x4d, 0x75,
  0x6c, 0x00, 0x00, 0x00, 0x02, 0x00, 0x00, 0x00, 0x10, 0x00, 0x00, 0x00,
  0x10, 0x00, 0x00, 0x00, 0xd2, 0xfe, 0xff, 0xff, 0x30, 0x00, 0x00, 0x00,
  0x05, 0x00, 0x00, 0x00, 0x0c, 0x00, 0x00, 0x00, 0x04, 0x00, 0x00, 0x00,
  0xc4, 0xfe, 0xff, 0xff, 0x17, 0x00, 0x00, 0x00, 0x73, 0x65, 0x71, 0x75,
  0x65, 0x6e, 0x74, 0x69, 0x61, 0x6c, 0x2f, 0x64, 0x65, 0x6e, 0x73, 0x65,
  0x2f, 0x4d, 0x61, 0x74, 0x4d, 0x75, 0x6c, 0x00, 0x02, 0x00, 0x00, 0x00,
  0x10, 0x00, 0x00, 0x00, 0x01, 0x00, 0x00, 0x00, 0x12, 0xff, 0xff, 0xff,
  0x44, 0x00, 0x00, 0x00, 0x04, 0x00, 0x00, 0x00, 0x0c, 0x00, 0x00, 0x00,
  0x04, 0x00, 0x00, 0x00, 0x04, 0xff, 0xff, 0xff, 0x29, 0x00, 0x00, 0x00,
  0x73, 0x65, 0x71, 0x75, 0x65, 0x6e, 0x74, 0x69, 0x61, 0x6c, 0x2f, 0x64,
  0x65, 0x6e, 0x73, 0x65, 0x5f, 0x32, 0x2f, 0x42, 0x69, 0x61, 0x73, 0x41,
  0x64, 0x64, 0x2f, 0x52, 0x65, 0x61, 0x64, 0x56, 0x61, 0x72, 0x69, 0x61,
  0x62, 0x6c, 0x65, 0x4f, 0x70, 0x00, 0x00, 0x00, 0x01, 0x00, 0x00, 0x00,
  0x01, 0x00, 0x00, 0x00, 0x62, 0xff, 0xff, 0xff, 0x44, 0x00, 0x00, 0x00,
  0x03, 0x00, 0x00, 0x00, 0x0c, 0x00, 0x00, 0x00, 0x04, 0x00, 0x00, 0x00,
  0x54, 0xff, 0xff, 0xff, 0x29, 0x00, 0x00, 0x00, 0x73, 0x65, 0x71, 0x75,
  0x65, 0x6e, 0x74, 0x69, 0x61, 0x6c, 0x2f, 0x64, 0x65, 0x6e, 0x73, 0x65,
  0x5f, 0x31, 0x2f, 0x42, 0x69, 0x61, 0x73, 0x41, 0x64, 0x64, 0x2f, 0x52,
  0x65, 0x61, 0x64, 0x56, 0x61, 0x72, 0x69, 0x61, 0x62, 0x6c, 0x65, 0x4f,
  0x70, 0x00, 0x00, 0x00, 0x01, 0x00, 0x00, 0x00, 0x10, 0x00, 0x00, 0x00,
  0xb2, 0xff, 0xff, 0xff, 0x40, 0x00, 0x00, 0x00, 0x02, 0x00, 0x00, 0x00,
  0x0c, 0x00, 0x00, 0x00, 0x04, 0x00, 0x00, 0x00, 0xa4, 0xff, 0xff, 0xff,
  0x27, 0x00, 0x00, 0x00, 0x73, 0x65, 0x71, 0x75, 0x65, 0x6e, 0x74, 0x69,
  0x61, 0x6c, 0x2f, 0x64, 0x65, 0x6e, 0x73, 0x65, 0x2f, 0x42, 0x69, 0x61,
  0x73, 0x41, 0x64, 0x64, 0x2f, 0x52, 0x65, 0x61, 0x64, 0x56, 0x61, 0x72,
  0x69, 0x61, 0x62, 0x6c, 0x65, 0x4f, 0x70, 0x00, 0x01, 0x00, 0x00, 0x00,
  0x10, 0x00, 0x00, 0x00, 0x00, 0x00, 0x0e, 0x00, 0x14, 0x00, 0x04, 0x00,
  0x00, 0x00, 0x08, 0x00, 0x0c, 0x00, 0x10, 0x00, 0x0e, 0x00, 0x00, 0x00,
  0x28, 0x00, 0x00, 0x00, 0x01, 0x00, 0x00, 0x00, 0x10, 0x00, 0x00, 0x00,
  0x08, 0x00, 0x00, 0x00, 0x04, 0x00, 0x04, 0x00, 0x04, 0x00, 0x00, 0x00,
  0x0b, 0x00, 0x00, 0x00, 0x64, 0x65, 0x6e, 0x73, 0x65, 0x5f, 0x69, 0x6e,
  0x70, 0x75, 0x74, 0x00, 0x02, 0x00, 0x00, 0x00, 0x01, 0x00, 0x00, 0x00,
  0x01, 0x00, 0x00, 0x00, 0x01, 0x00, 0x00, 0x00, 0x10, 0x00, 0x00, 0x00,
  0x00, 0x00, 0x0a, 0x00, 0x0c, 0x00, 0x07, 0x00, 0x00, 0x00, 0x08, 0x00,
  0x0a, 0x00, 0x00, 0x00, 0x00, 0x00, 0x00, 0x09, 0x03, 0x00, 0x00, 0x00
};
unsigned int sine_model_len = 2784;
