
#ifdef __has_attribute
#define HAVE_ATTRIBUTE(x) __has_attribute(x)
#else
#define HAVE_ATTRIBUTE(x) 0
#endif
#if HAVE_ATTRIBUTE(aligned) || (defined(__GNUC__) && !defined(__clang__))
#define DATA_ALIGN_ATTRIBUTE __attribute__((aligned(4)))
#else
#define DATA_ALIGN_ATTRIBUTE
#endif

const unsigned char digits_model[] DATA_ALIGN_ATTRIBUTE = {
	0x1c, 0x00, 0x00, 0x00, 0x54, 0x46, 0x4c, 0x33, 0x00, 0x00, 0x12, 0x00, 
	0x1c, 0x00, 0x04, 0x00, 0x08, 0x00, 0x0c, 0x00, 0x10, 0x00, 0x14, 0x00, 
	0x00, 0x00, 0x18, 0x00, 0x12, 0x00, 0x00, 0x00, 0x03, 0x00, 0x00, 0x00, 
	0x14, 0x00, 0x00, 0x00, 0x20, 0x00, 0x00, 0x00, 0xa4, 0x00, 0x00, 0x00, 
	0x20, 0x00, 0x00, 0x00, 0x4c, 0x00, 0x00, 0x00, 0x03, 0x00, 0x00, 0x00, 
	0xa8, 0x02, 0x00, 0x00, 0xe0, 0x01, 0x00, 0x00, 0x5c, 0x01, 0x00, 0x00, 
	0x01, 0x00, 0x00, 0x00, 0xa8, 0x00, 0x00, 0x00, 0x0b, 0x00, 0x00, 0x00, 
	0x28, 0x34, 0x00, 0x00, 0x24, 0x34, 0x00, 0x00, 0x1c, 0x33, 0x00, 0x00, 
	0x80, 0x32, 0x00, 0x00, 0x14, 0x32, 0x00, 0x00, 0xc4, 0x04, 0x00, 0x00, 
	0x48, 0x03, 0x00, 0x00, 0x0c, 0x34, 0x00, 0x00, 0x08, 0x34, 0x00, 0x00, 
	0x04, 0x34, 0x00, 0x00, 0x38, 0x00, 0x00, 0x00, 0x01, 0x00, 0x00, 0x00, 
	0x0c, 0x00, 0x00, 0x00, 0x08, 0x00, 0x0c, 0x00, 0x04, 0x00, 0x08, 0x00, 
	0x08, 0x00, 0x00, 0x00, 0x08, 0x00, 0x00, 0x00, 0x0a, 0x00, 0x00, 0x00, 
	0x13, 0x00, 0x00, 0x00, 0x6d, 0x69, 0x6e, 0x5f, 0x72, 0x75, 0x6e, 0x74, 
	0x69, 0x6d, 0x65, 0x5f, 0x76, 0x65, 0x72, 0x73, 0x69, 0x6f, 0x6e, 0x00, 
	0x42, 0xcd, 0xff, 0xff, 0x04, 0x00, 0x00, 0x00, 0x10, 0x00, 0x00, 0x00, 
	0x31, 0x2e, 0x35, 0x2e, 0x30, 0x00, 0x00, 0x00, 0x00, 0x00, 0x00, 0x00, 
	0x00, 0x00, 0x00, 0x00, 0x0f, 0x00, 0x00, 0x00, 0x4d, 0x4c, 0x49, 0x52, 
	0x20, 0x43, 0x6f, 0x6e, 0x76, 0x65, 0x72, 0x74, 0x65, 0x64, 0x2e, 0x00, 
	0x00, 0x00, 0x0e, 0x00, 0x18, 0x00, 0x04, 0x00, 0x08, 0x00, 0x0c, 0x00, 
	0x10, 0x00, 0x14, 0x00, 0x0e, 0x00, 0x00, 0x00, 0x14, 0x00, 0x00, 0x00, 
	0x38, 0x00, 0x00, 0x00, 0x3c, 0x00, 0x00, 0x00, 0x40, 0x00, 0x00, 0x00, 
	0x4c, 0x00, 0x00, 0x00, 0x09, 0x00, 0x00, 0x00, 0x10, 0x33, 0x00, 0x00, 
	0xa0, 0x32, 0x00, 0x00, 0xfc, 0x31, 0x00, 0x00, 0x80, 0x31, 0x00, 0x00, 
	0x18, 0x31, 0x00, 0x00, 0xbc, 0x03, 0x00, 0x00, 0xc8, 0x01, 0x00, 0x00, 
	0x00, 0x01, 0x00, 0x00, 0x7c, 0x00, 0x00, 0x00, 0x01, 0x00, 0x00, 0x00, 
	0x00, 0x00, 0x00, 0x00, 0x01, 0x00, 0x00, 0x00, 0x08, 0x00, 0x00, 0x00, 
	0x03, 0x00, 0x00, 0x00, 0x48, 0x01, 0x00, 0x00, 0xb0, 0x00, 0x00, 0x00, 
	0x1c, 0x00, 0x00, 0x00, 0x04, 0x00, 0x00, 0x00, 0x6d, 0x61, 0x69, 0x6e, 
	0x00, 0x00, 0x0e, 0x00, 0x18, 0x00, 0x08, 0x00, 0x0c, 0x00, 0x10, 0x00, 
	0x07, 0x00, 0x14, 0x00, 0x0e, 0x00, 0x00, 0x00, 0x00, 0x00, 0x00, 0x08, 
	0x02, 0x00, 0x00, 0x00, 0x18, 0x00, 0x00, 0x00, 0x0c, 0x00, 0x00, 0x00, 
	0x04, 0x00, 0x00, 0x00, 0x0c, 0xcd, 0xff, 0xff, 0x01, 0x00, 0x00, 0x00, 
	0x08, 0x00, 0x00, 0x00, 0x03, 0x00, 0x00, 0x00, 0x07, 0x00, 0x00, 0x00, 
	0x04, 0x00, 0x00, 0x00, 0x02, 0x00, 0x00, 0x00, 0xc6, 0xfe, 0xff, 0xff, 
	0x00, 0x00, 0x00, 0x09, 0x01, 0x00, 0x00, 0x00, 0xa0, 0xcd, 0xff, 0xff, 
	0x14, 0x00, 0x00, 0x00, 0x09, 0x00, 0x00, 0x00, 0x18, 0x00, 0x00, 0x00, 
	0x30, 0x00, 0x00, 0x00, 0x20, 0x00, 0x00, 0x00, 0x02, 0x00, 0x00, 0x00, 
	0x01, 0x00, 0x00, 0x00, 0x0a, 0x00, 0x00, 0x00, 0x08, 0x00, 0x00, 0x00, 
	0x49, 0x64, 0x65, 0x6e, 0x74, 0x69, 0x74, 0x79, 0x00, 0x00, 0x00, 0x00, 
	0x02, 0x00, 0x00, 0x00, 0xff, 0xff, 0xff, 0xff, 0x0a, 0x00, 0x00, 0x00, 
	0x84, 0xce, 0xff, 0xff, 0x00, 0x00, 0x0a, 0x00, 0x10, 0x00, 0x04, 0x00, 
	0x08, 0x00, 0x0c, 0x00, 0x0a, 0x00, 0x00, 0x00, 0x01, 0x00, 0x00, 0x00, 
	0x10, 0x00, 0x00, 0x00, 0x04, 0x00, 0x00, 0x00, 0x01, 0x00, 0x00, 0x00, 
	0x07, 0x00, 0x00, 0x00, 0x02, 0x00, 0x00, 0x00, 0x06, 0x00, 0x00, 0x00, 
	0x03, 0x00, 0x00, 0x00, 0x46, 0xff, 0xff, 0xff, 0x00, 0x00, 0x00, 0x16, 
	0x01, 0x00, 0x00, 0x00, 0x20, 0xce, 0xff, 0xff, 0x14, 0x00, 0x00, 0x00, 
	0x08, 0x00, 0x00, 0x00, 0x18, 0x00, 0x00, 0x00, 0x40, 0x00, 0x00, 0x00, 
	0x30, 0x00, 0x00, 0x00, 0x02, 0x00, 0x00, 0x00, 0x01, 0x00, 0x00, 0x00, 
	0x20, 0x01, 0x00, 0x00, 0x1a, 0x00, 0x00, 0x00, 0x73, 0x65, 0x71, 0x75, 
	0x65, 0x6e, 0x74, 0x69, 0x61, 0x6c, 0x2f, 0x66, 0x6c, 0x61, 0x74, 0x74, 
	0x65, 0x6e, 0x2f, 0x52, 0x65, 0x73, 0x68, 0x61, 0x70, 0x65, 0x00, 0x00, 
	0x02, 0x00, 0x00, 0x00, 0xff, 0xff, 0xff, 0xff, 0x20, 0x01, 0x00, 0x00, 
	0x14, 0xcf, 0xff, 0xff, 0x00, 0x00, 0x0e, 0x00, 0x14, 0x00, 0x00, 0x00, 
	0x08, 0x00, 0x0c, 0x00, 0x07, 0x00, 0x10, 0x00, 0x0e, 0x00, 0x00, 0x00, 
	0x00, 0x00, 0x00, 0x01, 0x30, 0x00, 0x00, 0x00, 0x24, 0x00, 0x00, 0x00, 
	0x10, 0x00, 0x00, 0x00, 0x0c, 0x00, 0x10, 0x00, 0x0e, 0x00, 0x04, 0x00, 
	0x08, 0x00, 0x0f, 0x00, 0x0c, 0x00, 0x00, 0x00, 0x01, 0x00, 0x00, 0x00, 
	0x01, 0x00, 0x00, 0x00, 0x00, 0x00, 0x01, 0x01, 0x01, 0x00, 0x00, 0x00, 
	0x06, 0x00, 0x00, 0x00, 0x03, 0x00, 0x00, 0x00, 0x00, 0x00, 0x00, 0x00, 
	0x05, 0x00, 0x00, 0x00, 0x01, 0x00, 0x00, 0x00, 0x00, 0x00, 0x0a, 0x00, 
	0x0c, 0x00, 0x07, 0x00, 0x00, 0x00, 0x08, 0x00, 0x0a, 0x00, 0x00, 0x00, 
	0x00, 0x00, 0x00, 0x03, 0x01, 0x00, 0x00, 0x00, 0xe4, 0xce, 0xff, 0xff, 
	0x14, 0x00, 0x00, 0x00, 0x07, 0x00, 0x00, 0x00, 0x20, 0x00, 0x00, 0x00, 
	0xb0, 0x00, 0x00, 0x00, 0x98, 0x00, 0x00, 0x00, 0x04, 0x00, 0x00, 0x00, 
	0x01, 0x00, 0x00, 0x00, 0x06, 0x00, 0x00, 0x00, 0x06, 0x00, 0x00, 0x00, 
	0x08, 0x00, 0x00, 0x00, 0x7b, 0x00, 0x00, 0x00, 0x73, 0x65, 0x71, 0x75, 
	0x65, 0x6e, 0x74, 0x69, 0x61, 0x6c, 0x2f, 0x63, 0x6f, 0x6e, 0x76, 0x32, 
	0x64, 0x2f, 0x52, 0x65, 0x6c, 0x75, 0x3b, 0x73, 0x65, 0x71, 0x75, 0x65, 
	0x6e, 0x74, 0x69, 0x61, 0x6c, 0x2f, 0x63, 0x6f, 0x6e, 0x76, 0x32, 0x64, 
	0x2f, 0x42, 0x69, 0x61, 0x73, 0x41, 0x64, 0x64, 0x3b, 0x73, 0x65, 0x71, 
	0x75, 0x65, 0x6e, 0x74, 0x69, 0x61, 0x6c, 0x2f, 0x63, 0x6f, 0x6e, 0x76, 
	0x32, 0x64, 0x2f, 0x43, 0x6f, 0x6e, 0x76, 0x32, 0x44, 0x3b, 0x73, 0x65, 
	0x71, 0x75, 0x65, 0x6e, 0x74, 0x69, 0x61, 0x6c, 0x2f, 0x63, 0x6f, 0x6e, 
	0x76, 0x32, 0x64, 0x2f, 0x42, 0x69, 0x61, 0x73, 0x41, 0x64, 0x64, 0x2f, 
	0x52, 0x65, 0x61, 0x64, 0x56, 0x61, 0x72, 0x69, 0x61, 0x62, 0x6c, 0x65, 
	0x4f, 0x70, 0x2f, 0x72, 0x65, 0x73, 0x6f, 0x75, 0x72, 0x63, 0x65, 0x00, 
	0x04, 0x00, 0x00, 0x00, 0xff, 0xff, 0xff, 0xff, 0x06, 0x00, 0x00, 0x00, 
	0x06, 0x00, 0x00, 0x00, 0x08, 0x00, 0x00, 0x00, 0x38, 0xcf, 0xff, 0xff, 
	0x42, 0xd0, 0xff, 0xff, 0x04, 0x00, 0x00, 0x00, 0x20, 0x01, 0x00, 0x00, 
	0x89, 0x1a, 0xbd, 0xbe, 0xdd, 0xd4, 0x41, 0x3e, 0xdb, 0xa0, 0x42, 0xbf, 
	0x44, 0xae, 0x50, 0x3e, 0x46, 0xaa, 0x26, 0x3f, 0xf8, 0x3a, 0xf9, 0xbc, 
	0x16, 0xc4, 0x22, 0x3f, 0x8c, 0xed, 0x2e, 0x3f, 0x43, 0xac, 0x48, 0x3f, 
	0x91, 0xc9, 0x1d, 0x3f, 0x6a, 0xf2, 0x37, 0x3f, 0x75, 0x4b, 0x2b, 0xbe, 
	0x68, 0xa2, 0xe1, 0x3e, 0xb7, 0xf7, 0x0f, 0x3c, 0x2a, 0x75, 0x27, 0xbf, 
	0x6e, 0xd3, 0xb5, 0x3e, 0xc7, 0x66, 0xb8, 0xbe, 0x82, 0xd6, 0x27, 0x3f, 
	0xb2, 0xb2, 0x02, 0x3f, 0xfb, 0x2f, 0xbb, 0xbe, 0xd4, 0x96, 0x95, 0x3e, 
	0x4b, 0x1d, 0xd7, 0xbe, 0xf3, 0x5d, 0x29, 0xbf, 0x31, 0xf5, 0xe1, 0x3e, 
	0x2b, 0x14, 0xb8, 0xbe, 0xa2, 0x8a, 0xb6, 0x3e, 0x03, 0xb1, 0x32, 0x3f, 
	0x0f, 0xfc, 0x76, 0xbd, 0xae, 0xde, 0x40, 0x3f, 0xdd, 0x76, 0x49, 0x3f, 
	0x4c, 0x47, 0x7f, 0xbe, 0x96, 0x9c, 0xef, 0x3e, 0xe7, 0xba, 0x40, 0x3f, 
	0xd2, 0x1b, 0x09, 0x3f, 0x1e, 0xb1, 0x09, 0x3e, 0x17, 0xc4, 0x0b, 0xbf, 
	0x10, 0x30, 0xd1, 0xbe, 0xb7, 0xaa, 0x3c, 0xbf, 0x12, 0xcb, 0x2e, 0xbf, 
	0xc1, 0xa6, 0x11, 0x3f, 0x00, 0x06, 0x55, 0x3e, 0x44, 0x0d, 0xc5, 0xbd, 
	0x92, 0x85, 0x4c, 0x3f, 0x95, 0x33, 0x07, 0x3f, 0x10, 0x92, 0x7a, 0x3e, 
	0xd8, 0xc6, 0x23, 0xbe, 0x89, 0x13, 0x4e, 0xbf, 0x00, 0xa0, 0x3a, 0x3e, 
	0x03, 0x30, 0x9b, 0xbe, 0xde, 0x0b, 0x02, 0xbe, 0x18, 0xbe, 0xcf, 0x3e, 
	0xaa, 0x2f, 0xa4, 0x3e, 0xe9, 0x45, 0xd6, 0x3e, 0xf8, 0xd4, 0x76, 0x3f, 
	0xd0, 0xf2, 0xcb, 0x3e, 0x44, 0xbc, 0xca, 0x3e, 0xff, 0xeb, 0x80, 0x3e, 
	0x61, 0x63, 0x17, 0x3f, 0x93, 0x7c, 0x46, 0x3f, 0x53, 0x7e, 0xf7, 0x3e, 
	0xb1, 0x31, 0x0f, 0x3f, 0x08, 0x0c, 0x92, 0xbe, 0x58, 0xca, 0x04, 0xbf, 
	0xc0, 0xd9, 0x0d, 0x3f, 0xc9, 0x44, 0x16, 0x3f, 0x6d, 0xce, 0xa9, 0x3e, 
	0xf9, 0x0c, 0x81, 0xbe, 0x05, 0xed, 0x36, 0x3f, 0x66, 0x1d, 0xb9, 0x3e, 
	0xfe, 0x46, 0x4a, 0xbf, 0xd6, 0xb0, 0x83, 0xbe, 0x00, 0x1f, 0x1b, 0x3f, 
	0x3a, 0xd1, 0xff, 0xff, 0x10, 0x00, 0x00, 0x00, 0x06, 0x00, 0x00, 0x00, 
	0x1c, 0x00, 0x00, 0x00, 0x38, 0x00, 0x00, 0x00, 0x04, 0x00, 0x00, 0x00, 
	0x08, 0x00, 0x00, 0x00, 0x03, 0x00, 0x00, 0x00, 0x03, 0x00, 0x00, 0x00, 
	0x01, 0x00, 0x00, 0x00, 0x18, 0x00, 0x00, 0x00, 0x73, 0x65, 0x71, 0x75, 
	0x65, 0x6e, 0x74, 0x69, 0x61, 0x6c, 0x2f, 0x63, 0x6f, 0x6e, 0x76, 0x32, 
	0x64, 0x2f, 0x43, 0x6f, 0x6e, 0x76, 0x32, 0x44, 0x00, 0x00, 0x00, 0x00, 
	0xb0, 0xd0, 0xff, 0xff, 0xba, 0xd1, 0xff, 0xff, 0x04, 0x00, 0x00, 0x00, 
	0x00, 0x2d, 0x00, 0x00, 0x77, 0x6b, 0x1d, 0x3c, 0x90, 0x42, 0xe1, 0x3c, 
	0x5c, 0xb4, 0x05, 0x3e, 0xbf, 0x29, 0x36, 0xbe, 0x39, 0x58, 0x52, 0xbd, 
	0x04, 0x64, 0xb9, 0x3d, 0x1c, 0x4b, 0x9c, 0xbe, 0x21, 0x2f, 0x30, 0xbd, 
	0xdc, 0x3e, 0x78, 0x3d, 0xd8, 0xe9, 0x3a, 0xbf, 0xef, 0xaa, 0x8b, 0x3d, 
	0x73, 0x00, 0x18, 0xbd, 0xf9, 0xed, 0x01, 0xbe, 0x71, 0xcc, 0xc4, 0x3d, 
	0x5e, 0x8f, 0x08, 0x3c, 0x49, 0x67, 0xef, 0x3c, 0x0e, 0x82, 0x1a, 0x3e, 
	0x92, 0x67, 0x47, 0xbe, 0xd1, 0x5b, 0xb2, 0xbe, 0x86, 0xe8, 0x3d, 0x3c, 
	0xfc, 0x09, 0x01, 0xbe, 0x28, 0xb4, 0x9d, 0xbe, 0xa0, 0x19, 0xaa, 0x3d, 
	0xc5, 0xf6, 0x3e, 0xbe, 0x15, 0x78, 0xfa, 0xbc, 0x9e, 0xc6, 0x39, 0x3e, 
	0xdd, 0xa1, 0x62, 0xbe, 0xb4, 0x25, 0xa1, 0x3d, 0x31, 0x82, 0x3b, 0xbe, 
	0xd2, 0xa7, 0xce, 0xbd, 0xae, 0x16, 0xd7, 0x3d, 0x13, 0xe2, 0x67, 0x3d, 
	0x96, 0xd1, 0x06, 0xbd, 0x37, 0x9b, 0x0d, 0xbd, 0x04, 0x95, 0x44, 0xbe, 
	0x8a, 0x80, 0x66, 0xbe, 0x69, 0x3b, 0x6e, 0x3e, 0x6d, 0x1b, 0xc1, 0xbe, 
	0x66, 0x5a, 0x14, 0xbe, 0x1f, 0x0f, 0x6b, 0x3d, 0xce, 0xc7, 0x3b, 0x3e, 
	0xbb, 0x87, 0x1d, 0xbe, 0x50, 0x78, 0xf9, 0xbe, 0x4a, 0x8e, 0x7e, 0xbe, 
	0x9b, 0xf6, 0x54, 0x3e, 0x56, 0x8a, 0xd3, 0xbd, 0x41, 0xa2, 0xf8, 0x3c, 
	0xf5, 0x61, 0x09, 0xbf, 0xdf, 0x2d, 0x26, 0x3e, 0xb7, 0x5f, 0x73, 0xbe, 
	0x56, 0x41, 0x36, 0xbd, 0x06, 0x57, 0xf2, 0xbc, 0xb9, 0x8a, 0x97, 0x3c, 
	0xf4, 0x89, 0xa7, 0x3d, 0x3d, 0x48, 0x8a, 0xbe, 0x0d, 0xa4, 0x12, 0x3e, 
	0xc9, 0xb1, 0xe1, 0xbc, 0xd9, 0xa9, 0x38, 0xbe, 0x0f, 0xdc, 0x0f, 0xbe, 
	0xf4, 0x1e, 0x36, 0x3e, 0x00, 0x43, 0xa5, 0x3d, 0x73, 0x77, 0xc5, 0xbe, 
	0xd6, 0x5b, 0x48, 0x3d, 0x6d, 0x9b, 0x68, 0xbe, 0xf1, 0x11, 0x74, 0xbe, 
	0xec, 0xd0, 0x02, 0x3d, 0xba, 0x20, 0xed, 0xbe, 0x2c, 0x52, 0x78, 0x3d, 
	0x0e, 0x28, 0x5b, 0xbe, 0xa9, 0xcd, 0x50, 0xbf, 0xa7, 0xf4, 0x29, 0x3d, 
	0xab, 0x7d, 0xab, 0xbe, 0x8c, 0x44, 0x89, 0xbe, 0xe8, 0x6c, 0x3f, 0xbe, 
	0x66, 0xb0, 0xb3, 0x3d, 0x28, 0xea, 0xa4, 0xbd, 0x50, 0x30, 0x19, 0xbf, 
	0x0e, 0x36, 0x99, 0xbd, 0x4f, 0xdc, 0x13, 0x3e, 0x1d, 0x9e, 0xca, 0x3c, 
	0x61, 0x3c, 0x44, 0xbd, 0x11, 0xb6, 0x6f, 0x3d, 0x3c, 0xa3, 0x33, 0x3e, 
	0xc0, 0x78, 0x4a, 0x3d, 0x2f, 0xfc, 0x07, 0xbf, 0xbe, 0x4d, 0x51, 0xbe, 
	0x0c, 0x6b, 0x3b, 0xbe, 0x18, 0x45, 0x2a, 0x3e, 0xf9, 0xcb, 0xa5, 0x3d, 
	0xcc, 0xdc, 0x66, 0xbd, 0xcf, 0x72, 0x3e, 0xbe, 0x33, 0x3c, 0x3b, 0xbe, 
	0xde, 0xe4, 0xad, 0xbc, 0xbe, 0xca, 0x04, 0xbf, 0x82, 0x11, 0x91, 0x3c, 
	0xeb, 0xd7, 0xee, 0x3d, 0x1c, 0x95, 0xa0, 0x3c, 0x4d, 0xe5, 0xee, 0xbe, 
	0xa1, 0x04, 0x4e, 0xbc, 0x65, 0x81, 0xc4, 0xbc, 0xbe, 0xdc, 0xa9, 0xbe, 
	0x67, 0x53, 0x30, 0x3e, 0x2a, 0x7b, 0x15, 0xbe, 0x5d, 0x88, 0xf5, 0x3d, 
	0x7d, 0xda, 0xa8, 0x3d, 0x1f, 0x6e, 0x93, 0x3e, 0x31, 0x91, 0x99, 0xbe, 
	0xa7, 0x0f, 0xbd, 0x3d, 0x88, 0xf6, 0x00, 0x3d, 0xdd, 0x49, 0x1c, 0xbf, 
	0x61, 0x47, 0x9c, 0x3d, 0x2c, 0xb2, 0xd7, 0xbd, 0x14, 0x63, 0x94, 0xbe, 
	0x29, 0xb2, 0x12, 0x3e, 0xd3, 0x76, 0xbb, 0xbe, 0x48, 0xe2, 0x82, 0xbe, 
	0xf4, 0x47, 0x1a, 0x3e, 0xbd, 0x2c, 0x1f, 0xbf, 0x53, 0xf3, 0x19, 0x3e, 
	0x17, 0x0a, 0xd8, 0xbe, 0xab, 0x65, 0xbf, 0xbe, 0x0c, 0xe5, 0x93, 0xbe, 
	0x3b, 0x2f, 0x65, 0x3e, 0xaa, 0x77, 0x30, 0xbe, 0x90, 0xdd, 0x55, 0xbf, 
	0xa2, 0xc4, 0x76, 0x3e, 0xe5, 0xc5, 0x1d, 0xbe, 0x48, 0x8d, 0x8c, 0x3d, 
	0xf5, 0x75, 0x81, 0x3d, 0xe3, 0xa5, 0x65, 0xbe, 0x64, 0x0d, 0x95, 0x3e, 
	0x66, 0x59, 0x05, 0xbd, 0x60, 0x01, 0x0b, 0xbf, 0xb4, 0x54, 0x42, 0x3e, 
	0x89, 0xdc, 0xb5, 0xbe, 0x07, 0x91, 0x68, 0x3e, 0x1b, 0x69, 0x99, 0x3d, 
	0x81, 0x85, 0xfb, 0x3c, 0xdc, 0x82, 0x68, 0xbe, 0x71, 0x81, 0x13, 0x3e, 
	0x77, 0x63, 0x07, 0xbe, 0x6a, 0xf9, 0x10, 0xbf, 0xde, 0x2a, 0xbf, 0x3d, 
	0xa2, 0x6c, 0xdf, 0x3e, 0x7d, 0xa6, 0x90, 0x3d, 0x7d, 0x92, 0x8e, 0xbd, 
	0xa7, 0x83, 0x23, 0x3d, 0xba, 0x6c, 0x5f, 0x3e, 0x3c, 0x9d, 0x15, 0xbf, 
	0x48, 0x5a, 0xa7, 0x3d, 0xcd, 0x41, 0x2b, 0x3e, 0x7b, 0x67, 0x18, 0x3e, 
	0x50, 0xc3, 0x3a, 0x3e, 0x3c, 0xe1, 0x70, 0x3e, 0xde, 0x85, 0xe0, 0xbe, 
	0x76, 0x52, 0x31, 0xbe, 0xd9, 0xd9, 0x54, 0x3e, 0xc8, 0x68, 0xe7, 0xbe, 
	0x5c, 0xf2, 0x02, 0x3e, 0x34, 0x98, 0x70, 0xbd, 0x6a, 0xa4, 0x2f, 0x3d, 
	0x04, 0xc4, 0x21, 0x3e, 0xd6, 0xb4, 0x35, 0xbe, 0x70, 0x0f, 0xa5, 0xbe, 
	0xaa, 0xa8, 0xf5, 0x3e, 0x6d, 0x3c, 0xba, 0xbe, 0xc3, 0xc9, 0x7a, 0x3d, 
	0xc9, 0xe4, 0xda, 0xbe, 0xb9, 0xd1, 0xa4, 0xbe, 0x29, 0xdb, 0xbb, 0xbe, 
	0x83, 0x23, 0xfb, 0x3d, 0x66, 0xc0, 0xb6, 0xbe, 0x78, 0xc8, 0x83, 0xbe, 
	0xff, 0xc2, 0x34, 0x3e, 0x48, 0xb6, 0xd7, 0xbe, 0xee, 0xc9, 0x0f, 0xbe, 
	0x8b, 0xdc, 0x42, 0x3d, 0xac, 0x4a, 0x8e, 0xbe, 0xba, 0x83, 0xbb, 0x3e, 
	0x2c, 0x47, 0x5d, 0x3e, 0xc3, 0xaf, 0x8f, 0xbe, 0xc0, 0x7a, 0x9e, 0x3e, 
	0x24, 0x10, 0x58, 0xbe, 0x16, 0xa4, 0x47, 0x3e, 0x4c, 0xd0, 0xc2, 0x3d, 
	0x66, 0x2d, 0xca, 0x3d, 0xdf, 0x97, 0x99, 0xbe, 0x14, 0xa1, 0x84, 0x3e, 
	0xfe, 0xf6, 0x79, 0xbe, 0x11, 0x5b, 0x66, 0xbf, 0x27, 0x29, 0x02, 0x3e, 
	0x45, 0x35, 0x98, 0x3e, 0xc9, 0x5f, 0xff, 0xbd, 0xa0, 0x9a, 0x0e, 0x3d, 
	0xe5, 0xa0, 0xd3, 0xbc, 0xdc, 0xee, 0x5b, 0x3e, 0x23, 0x57, 0x81, 0xbf, 
	0xd8, 0xb6, 0xd9, 0xbb, 0x19, 0xe1, 0xe9, 0x3d, 0xc0, 0x71, 0x41, 0x3e, 
	0xa5, 0x48, 0x1f, 0xbb, 0x92, 0xf9, 0x9a, 0x3e, 0x2e, 0xd2, 0x04, 0xbd, 
	0xbb, 0x98, 0x6f, 0xbe, 0xea, 0x68, 0x26, 0xbe, 0xd5, 0x73, 0xaf, 0xbe, 
	0x3e, 0x30, 0x98, 0x3d, 0x29, 0x0a, 0xe5, 0x3d, 0x5a, 0xdd, 0x00, 0x3e, 
	0x9a, 0x3d, 0x26, 0x3e, 0x45, 0xfc, 0xde, 0xbd, 0x58, 0x2d, 0x66, 0xbe, 
	0x4a, 0xae, 0x4d, 0x3e, 0x74, 0x7c, 0x03, 0xbe, 0x67, 0x2d, 0xd5, 0xbd, 
	0x42, 0x24, 0xc4, 0xbe, 0xca, 0x69, 0x2d, 0x3d, 0x6f, 0x84, 0x4a, 0xbe, 
	0xc2, 0x27, 0x59, 0x3e, 0x0c, 0x13, 0x78, 0xbe, 0xdc, 0xd1, 0x62, 0x3e, 
	0xa2, 0xc1, 0x0e, 0x3e, 0x2a, 0xab, 0x0c, 0xbe, 0x08, 0xa5, 0x02, 0xbe, 
	0x94, 0x90, 0x21, 0x3e, 0xc7, 0xc7, 0x4f, 0xbe, 0x6c, 0x08, 0xf3, 0x3c, 
	0xd6, 0x2a, 0x30, 0x3e, 0xbd, 0xe4, 0xb3, 0xbd, 0x93, 0x33, 0x9e, 0x3e, 
	0xe4, 0xf8, 0x3a, 0xbd, 0x9a, 0x30, 0xa6, 0xbd, 0x50, 0xfd, 0xb5, 0x3d, 
	0x89, 0x33, 0x06, 0xbc, 0x16, 0x5c, 0x1e, 0xbf, 0x42, 0xe5, 0x01, 0x3e, 
	0x84, 0xac, 0x1d, 0xbe, 0xdf, 0x05, 0x59, 0xbf, 0x14, 0x48, 0xa5, 0x3d, 
	0x12, 0x5b, 0x93, 0xbe, 0x44, 0xe4, 0x87, 0xbe, 0x12, 0x61, 0x15, 0xbf, 
	0x5d, 0x5a, 0x74, 0x3e, 0x24, 0x28, 0x36, 0xbd, 0x57, 0xac, 0x47, 0xbf, 
	0xc2, 0xa7, 0x06, 0xbc, 0xee, 0xec, 0xd8, 0x3c, 0x29, 0x8a, 0xe8, 0xbd, 
	0x19, 0xf7, 0xfb, 0x3d, 0x4c, 0x26, 0x11, 0x3e, 0x07, 0x37, 0x58, 0xbe, 
	0x9a, 0x4f, 0x24, 0x3e, 0x19, 0x62, 0xe5, 0xbe, 0x33, 0x8f, 0xd8, 0xbd, 
	0x73, 0x3f, 0x0d, 0xbd, 0x62, 0xc7, 0x2a, 0x3e, 0xa9, 0x98, 0xd5, 0x3d, 
	0x95, 0x16, 0x05, 0xbe, 0x62, 0x15, 0x1b, 0x3d, 0x83, 0xc3, 0x00, 0xbe, 
	0x2d, 0x43, 0x20, 0xbd, 0x5e, 0x97, 0xe0, 0xbd, 0x64, 0x2e, 0xa0, 0x3d, 
	0xc3, 0x92, 0xcf, 0xbc, 0xdc, 0x18, 0x81, 0x3d, 0x36, 0x42, 0x61, 0xbe, 
	0x5d, 0x32, 0x5f, 0xbe, 0x37, 0x3e, 0xaa, 0x3c, 0xf3, 0x72, 0xe3, 0x3d, 
	0x17, 0x52, 0x5a, 0x3d, 0xfa, 0x7e, 0x45, 0x3b, 0x10, 0x5b, 0x91, 0xbe, 
	0x8b, 0x77, 0xc1, 0x3c, 0xcb, 0xb9, 0x0d, 0xbe, 0xb6, 0x5f, 0x29, 0xbe, 
	0x64, 0x12, 0x05, 0xbc, 0xed, 0x97, 0x8d, 0xbc, 0xb8, 0x15, 0x06, 0xbe, 
	0x0c, 0x1f, 0x42, 0x3d, 0x62, 0xdf, 0x23, 0x3d, 0xbf, 0x33, 0x56, 0x3d, 
	0xd4, 0xe1, 0x94, 0x3d, 0x39, 0xd7, 0xc5, 0xbe, 0x28, 0x11, 0xde, 0xba, 
	0x63, 0x69, 0x87, 0xbc, 0x32, 0x89, 0x2f, 0xbf, 0xcc, 0x63, 0x22, 0x3d, 
	0xde, 0x06, 0x87, 0xbe, 0x38, 0x92, 0x80, 0xbe, 0x0b, 0xbb, 0x3e, 0x3d, 
	0x26, 0x10, 0xae, 0xbc, 0xc1, 0xbd, 0xb4, 0xbe, 0x09, 0xfb, 0x81, 0x3c, 
	0x23, 0x4e, 0x5f, 0xbe, 0x51, 0xc1, 0xc2, 0xbe, 0x45, 0xec, 0x6e, 0xbe, 
	0xf8, 0xc8, 0x0c, 0xbe, 0x21, 0xe6, 0xc4, 0x3e, 0xbb, 0x67, 0xd0, 0x3d, 
	0x1e, 0xd9, 0x66, 0xbe, 0x56, 0x1e, 0xc9, 0xbd, 0x0a, 0xbd, 0x82, 0x3d, 
	0x1d, 0xbe, 0x83, 0xbe, 0x1a, 0x1c, 0x94, 0x3d, 0xd5, 0x78, 0xe4, 0x3d, 
	0x37, 0x5c, 0x9b, 0x3b, 0xe1, 0x17, 0x94, 0x3e, 0x0b, 0xca, 0x58, 0xbe, 
	0x26, 0xfc, 0xe2, 0xbc, 0x6b, 0x43, 0x76, 0x3e, 0xaa, 0x47, 0xd4, 0xbe, 
	0x6d, 0x2e, 0x1f, 0xbd, 0x12, 0x98, 0x16, 0x3d, 0x15, 0xfb, 0xb9, 0xbe, 
	0x9a, 0x6d, 0x3d, 0x3e, 0xe4, 0x33, 0xee, 0x3d, 0x83, 0xb3, 0x02, 0x3e, 
	0x77, 0xbb, 0x4f, 0x3e, 0xcf, 0x63, 0x88, 0x3d, 0x76, 0x0f, 0x6b, 0xbe, 
	0x39, 0xda, 0x41, 0x3d, 0xa3, 0x29, 0x96, 0xbd, 0xad, 0x7d, 0x21, 0xbf, 
	0x00, 0x6a, 0x0b, 0x3d, 0xe8, 0x77, 0x15, 0x3e, 0xa4, 0x32, 0x1a, 0xbe, 
	0xcb, 0x0e, 0x83, 0x3d, 0xd4, 0x44, 0xe5, 0xbe, 0x92, 0x53, 0x3b, 0xbe, 
	0x2f, 0xc3, 0x14, 0xbd, 0xc1, 0x2c, 0x21, 0x3d, 0xfe, 0x8b, 0x69, 0xbe, 
	0x40, 0x19, 0x95, 0xbe, 0x87, 0x03, 0xa7, 0xbe, 0xd1, 0xeb, 0xe0, 0xbd, 
	0x1c, 0xec, 0x76, 0xbe, 0xce, 0xec, 0x0e, 0x3d, 0x2d, 0xb4, 0x46, 0x3d, 
	0xb7, 0xdb, 0x7e, 0xbd, 0x99, 0x4a, 0xc3, 0xbe, 0x41, 0xd5, 0xdf, 0x3d, 
	0x6c, 0xcb, 0x83, 0x3d, 0xdb, 0x58, 0x15, 0xbf, 0x97, 0xa0, 0x07, 0xbe, 
	0xc1, 0xb7, 0x97, 0xbd, 0x6e, 0x70, 0xea, 0xbe, 0x6d, 0x34, 0xc1, 0x3d, 
	0x88, 0xa7, 0x02, 0xbd, 0xcf, 0x18, 0xaf, 0xbd, 0xa7, 0x3a, 0xa3, 0x3e, 
	0x28, 0xa1, 0x2e, 0xbe, 0x23, 0xc2, 0x2c, 0x3d, 0xb8, 0x2a, 0xd9, 0x3d, 
	0x16, 0x0c, 0x97, 0xbe, 0xc9, 0xd6, 0x2c, 0x3c, 0xbc, 0x3c, 0xa4, 0xbd, 
	0xf9, 0xee, 0x7d, 0x3e, 0xba, 0xaa, 0x03, 0x3e, 0xa4, 0x36, 0x2f, 0xbe, 
	0x15, 0xfa, 0x0f, 0x3e, 0x74, 0x83, 0x81, 0x3d, 0xfd, 0x08, 0x17, 0x3d, 
	0x12, 0x49, 0x15, 0xbf, 0xc1, 0xce, 0xa4, 0xbc, 0x87, 0xae, 0xb6, 0x3e, 
	0x1b, 0x27, 0xfd, 0xbd, 0x0b, 0x7a, 0x6a, 0x3e, 0xc1, 0xb1, 0x4f, 0xbe, 
	0xbd, 0x14, 0x29, 0x3c, 0x77, 0x74, 0xa7, 0xbd, 0x95, 0xee, 0xcf, 0xbe, 
	0x89, 0x15, 0x67, 0x3d, 0x1f, 0xf4, 0xb4, 0x3d, 0xd5, 0xa4, 0x88, 0xbe, 
	0x39, 0xc5, 0x70, 0xbd, 0x1b, 0x81, 0xe3, 0xbe, 0x7f, 0x3f, 0x44, 0xbe, 
	0xaf, 0x92, 0xb2, 0x3c, 0xb9, 0x83, 0x08, 0xbe, 0x40, 0x33, 0x1f, 0xbe, 
	0x02, 0x89, 0x61, 0xbe, 0xea, 0x4a, 0x4b, 0xbd, 0xa0, 0x4c, 0x8b, 0x3d, 
	0xac, 0xc2, 0xe5, 0xbe, 0x4c, 0x97, 0xf6, 0x3d, 0x1b, 0x5f, 0x6d, 0xbe, 
	0xff, 0x45, 0x2a, 0x3d, 0xa1, 0xc2, 0x80, 0x3c, 0xd8, 0xef, 0x8c, 0xbe, 
	0xba, 0x6e, 0xbb, 0xbd, 0x35, 0x2e, 0x59, 0xbb, 0xa3, 0xc6, 0x3a, 0x3d, 
	0x27, 0x0a, 0xc4, 0xbd, 0xc1, 0x88, 0xf0, 0xbe, 0x74, 0x7d, 0xf9, 0xbd, 
	0xc8, 0xc7, 0x84, 0x3d, 0xec, 0x3b, 0x50, 0xbe, 0xd8, 0x32, 0x5a, 0x3e, 
	0xf8, 0xd0, 0x2c, 0xbc, 0xd3, 0x9e, 0xed, 0xbd, 0x91, 0xce, 0x0a, 0x3e, 
	0x9e, 0xbf, 0xdd, 0xbd, 0x08, 0xd8, 0x8e, 0xbe, 0xda, 0xf3, 0x71, 0x3a, 
	0xa4, 0x32, 0x8e, 0xbe, 0xc4, 0xa1, 0x00, 0xbe, 0xeb, 0xa3, 0x6e, 0x3e, 
	0x68, 0x06, 0x60, 0x3e, 0x94, 0x67, 0x1e, 0xbd, 0x3b, 0xd4, 0x8d, 0x3e, 
	0xcf, 0xc0, 0xc2, 0xbd, 0xe4, 0x6a, 0x99, 0x3d, 0x4f, 0x2b, 0xbc, 0x3c, 
	0x6c, 0x22, 0xfd, 0xbe, 0x88, 0x9b, 0x58, 0x3e, 0x9e, 0xfb, 0xd4, 0x3d, 
	0xe0, 0x57, 0xa9, 0x3d, 0x94, 0xcc, 0x37, 0xbd, 0xed, 0xfb, 0x3a, 0xbf, 
	0xd2, 0x85, 0x2c, 0xbd, 0x7e, 0x2b, 0x2f, 0x3e, 0x0d, 0x67, 0x78, 0xbd, 
	0x99, 0x37, 0x55, 0x3e, 0x7b, 0xc4, 0x74, 0xbe, 0x27, 0x14, 0x30, 0xbe, 
	0x39, 0x67, 0x3e, 0x3c, 0x37, 0xb1, 0x34, 0xbe, 0xb4, 0x4e, 0x82, 0x3c, 
	0x49, 0x7f, 0xde, 0xbd, 0xbe, 0x6e, 0xb9, 0x3d, 0x7c, 0x39, 0x01, 0xbe, 
	0x6e, 0x38, 0x41, 0xbf, 0x4c, 0x3d, 0xb9, 0xbe, 0xb9, 0xd1, 0xff, 0xbe, 
	0xdc, 0x49, 0xa9, 0xbd, 0xea, 0x11, 0x09, 0x3e, 0x4d, 0xf5, 0x34, 0xbf, 
	0xfc, 0x19, 0x75, 0xbc, 0xc9, 0x4e, 0x11, 0xbe, 0x5e, 0xd7, 0x93, 0x3d, 
	0xf0, 0xaf, 0x46, 0xbd, 0x8e, 0xdd, 0x80, 0xbe, 0xa9, 0x6b, 0x15, 0x3e, 
	0x55, 0x12, 0x7b, 0x3c, 0xfc, 0x82, 0x1f, 0xbf, 0x83, 0x4e, 0xc9, 0xbd, 
	0x85, 0x4c, 0x10, 0xbe, 0x93, 0x31, 0x41, 0x3e, 0x74, 0xbb, 0xa6, 0xbd, 
	0xb5, 0x08, 0xa0, 0x3d, 0xaa, 0x7d, 0x98, 0x3d, 0xc3, 0xf4, 0xd3, 0x3d, 
	0x04, 0xa9, 0xd8, 0xbe, 0xae, 0x0a, 0x5a, 0xbe, 0xfa, 0x0b, 0xa7, 0x3c, 
	0x67, 0x04, 0xa4, 0x3d, 0x35, 0x07, 0xf5, 0xbd, 0x54, 0xec, 0xc2, 0x3d, 
	0x38, 0x73, 0x36, 0x3e, 0x0b, 0x1e, 0x61, 0x3e, 0xeb, 0x5d, 0xea, 0xbd, 
	0x81, 0xcb, 0xff, 0xbd, 0xb3, 0xbb, 0x6f, 0x3e, 0x15, 0x90, 0x11, 0xbe, 
	0x21, 0xe5, 0x85, 0xbc, 0xba, 0xf4, 0xaf, 0x3d, 0x93, 0xf6, 0x73, 0xbf, 
	0xa2, 0xb9, 0xd9, 0xbc, 0x74, 0xd9, 0xd3, 0x37, 0xef, 0x1d, 0x88, 0xbf, 
	0x87, 0x40, 0x5e, 0x3e, 0x39, 0xbc, 0xab, 0xbd, 0x90, 0x29, 0x89, 0xbe, 
	0xd5, 0xf2, 0xbd, 0xbd, 0x6c, 0x67, 0x44, 0xbe, 0x9a, 0xdf, 0xb8, 0xbe, 
	0x97, 0xbc, 0xc9, 0xbd, 0x66, 0xd9, 0x25, 0xbe, 0x3b, 0xee, 0xf6, 0xbd, 
	0x47, 0x2b, 0x86, 0xbe, 0x24, 0xc5, 0xa8, 0xbe, 0xc2, 0x9e, 0x15, 0xbe, 
	0x00, 0x0c, 0xd0, 0xbd, 0x41, 0x0c, 0xd5, 0x3c, 0x4d, 0x04, 0xd9, 0xbc, 
	0x8e, 0x4d, 0x04, 0xbe, 0x57, 0x44, 0xc6, 0xbc, 0x6f, 0x08, 0x43, 0xbe, 
	0x6f, 0xb2, 0xeb, 0x3d, 0x6d, 0xa2, 0xb8, 0xbd, 0x08, 0xa2, 0xba, 0x3c, 
	0x2a, 0xf5, 0xe6, 0x3d, 0xab, 0xbf, 0x02, 0xbf, 0x7a, 0xea, 0x91, 0xbd, 
	0x2a, 0xff, 0xca, 0xbd, 0x44, 0xbe, 0x63, 0x3d, 0x65, 0x3d, 0xc3, 0xbd, 
	0xe8, 0x30, 0x53, 0xbe, 0x89, 0xe0, 0x51, 0x3e, 0x18, 0x28, 0xe5, 0x3d, 
	0xd7, 0x9f, 0x06, 0xbf, 0x95, 0x7a, 0xfa, 0x3d, 0x6f, 0x8a, 0x36, 0xbe, 
	0x5d, 0x51, 0xb9, 0x3b, 0x67, 0x95, 0x4c, 0x3e, 0xe3, 0xa3, 0x07, 0x3e, 
	0x97, 0x8e, 0xee, 0xbc, 0x10, 0x2a, 0x0d, 0xb9, 0x5f, 0x03, 0x5d, 0x3e, 
	0x6c, 0xa8, 0x16, 0xbe, 0xee, 0x35, 0x07, 0x3d, 0xf6, 0xa8, 0x8a, 0x3c, 
	0xcd, 0x0a, 0x48, 0xbd, 0xe9, 0xb6, 0xc8, 0xb9, 0xf4, 0x05, 0x06, 0xbf, 
	0x22, 0x27, 0x36, 0xbe, 0x3f, 0x03, 0xd4, 0xbd, 0x5e, 0x1f, 0xf2, 0xbe, 
	0xe7, 0x00, 0x86, 0x39, 0x90, 0xd6, 0xe4, 0xbe, 0xd9, 0x87, 0x87, 0xbd, 
	0x47, 0x80, 0x63, 0x3d, 0xb3, 0x4f, 0x44, 0x3e, 0x69, 0x45, 0xab, 0xbe, 
	0x8e, 0x7c, 0x82, 0xbe, 0x6b, 0x00, 0x76, 0x3e, 0x6e, 0xe7, 0x2f, 0xbd, 
	0x6b, 0x8a, 0xe8, 0xbe, 0x49, 0xcc, 0x6b, 0xbe, 0xa3, 0x30, 0xc7, 0xbe, 
	0xac, 0x18, 0x13, 0xbd, 0x46, 0xdd, 0x8b, 0x3c, 0x8b, 0xac, 0x83, 0xbd, 
	0x84, 0x1e, 0xd4, 0x3c, 0x1d, 0xd8, 0x6e, 0xbe, 0x90, 0x8b, 0x1a, 0xbe, 
	0x79, 0x3e, 0x7b, 0xbe, 0x27, 0x3d, 0x98, 0xbe, 0x26, 0x43, 0x94, 0x3d, 
	0xb8, 0x2a, 0x24, 0x3e, 0xc7, 0x78, 0x8f, 0x3d, 0x16, 0xd2, 0x00, 0xbd, 
	0xbc, 0x16, 0x1e, 0x3d, 0xc4, 0x5a, 0x22, 0xbd, 0xb7, 0xa9, 0x7f, 0xbc, 
	0x07, 0x31, 0xdc, 0xbd, 0x74, 0x7a, 0x3a, 0xbe, 0x90, 0x94, 0x3f, 0x3e, 
	0x5f, 0x49, 0xf0, 0xbe, 0x93, 0xe3, 0xa7, 0xbc, 0x49, 0x46, 0xcd, 0xbb, 
	0xf5, 0x69, 0x91, 0x3d, 0xd1, 0x5d, 0x21, 0x3e, 0xfd, 0x74, 0x89, 0x3d, 
	0x82, 0x0d, 0x3d, 0xbe, 0xa8, 0x87, 0x40, 0x3d, 0x2f, 0x0c, 0x07, 0x3e, 
	0x49, 0x19, 0x49, 0xbd, 0x17, 0xf8, 0x08, 0x3e, 0xd8, 0xf6, 0x81, 0x3e, 
	0xaf, 0x87, 0x11, 0x3e, 0xee, 0xaf, 0xad, 0x3d, 0xf8, 0xf9, 0xa1, 0xbe, 
	0xb1, 0xdf, 0x36, 0xbe, 0x03, 0x32, 0x98, 0x3d, 0x5b, 0x94, 0x1f, 0x3e, 
	0x0b, 0x6c, 0xd2, 0x3c, 0x26, 0x75, 0x39, 0x3d, 0x9d, 0x27, 0x39, 0x3e, 
	0xcf, 0xad, 0x47, 0x3d, 0x09, 0x4f, 0x5b, 0xbe, 0xd0, 0x21, 0x72, 0xbc, 
	0x7b, 0x1a, 0x96, 0x3e, 0xd6, 0x6d, 0xf5, 0x3e, 0x44, 0x71, 0x3b, 0xbd, 
	0x19, 0x67, 0x0b, 0xbf, 0xfc, 0x49, 0x16, 0xbc, 0xd3, 0x47, 0x9a, 0x3d, 
	0x1c, 0x7d, 0x2c, 0xbe, 0x1c, 0x5c, 0x67, 0x3e, 0xf6, 0x34, 0x1a, 0x3e, 
	0xf7, 0x62, 0x09, 0xbe, 0x1d, 0xbc, 0xb0, 0x3e, 0x2d, 0xc7, 0x28, 0x3b, 
	0xe9, 0x9a, 0x07, 0xbc, 0x27, 0xf8, 0x12, 0x3e, 0xcd, 0x00, 0xba, 0xbe, 
	0x4a, 0xd8, 0x1a, 0xbc, 0xd9, 0xeb, 0x0f, 0x3d, 0x83, 0x9f, 0x54, 0xbe, 
	0x41, 0x69, 0x64, 0x3e, 0x01, 0x82, 0x55, 0x3d, 0x6b, 0xcb, 0xec, 0xbd, 
	0x46, 0x1d, 0x30, 0xbd, 0x12, 0x76, 0x96, 0x3d, 0x06, 0x37, 0x60, 0xbd, 
	0x8b, 0xa8, 0x6c, 0xbe, 0x28, 0xfc, 0x39, 0xbd, 0xae, 0x84, 0x1a, 0x3e, 
	0x48, 0x46, 0x8f, 0x3b, 0x83, 0xac, 0xb1, 0x3d, 0x49, 0xd2, 0x87, 0xbd, 
	0x3b, 0x6b, 0x8b, 0xbe, 0x24, 0x18, 0x22, 0xbe, 0x39, 0xe7, 0x3f, 0x3d, 
	0xdc, 0x2f, 0x88, 0xbd, 0x77, 0x7a, 0x1a, 0xbe, 0x2f, 0x40, 0xee, 0x3d, 
	0xa3, 0xeb, 0x86, 0x3d, 0xeb, 0x73, 0xd6, 0x3d, 0x60, 0x5c, 0xd7, 0x3c, 
	0x19, 0xf6, 0x2e, 0xbe, 0x2c, 0xa7, 0xab, 0x3d, 0xd0, 0xba, 0xca, 0x3c, 
	0xc4, 0x7e, 0x33, 0x3e, 0xe7, 0x56, 0x97, 0xbd, 0x12, 0xce, 0x0d, 0xbe, 
	0xff, 0x89, 0xcb, 0xbd, 0x51, 0x69, 0xff, 0x3d, 0x0c, 0x96, 0x7e, 0xbc, 
	0x35, 0x24, 0x83, 0xbd, 0x28, 0xee, 0x48, 0x3e, 0x33, 0xd9, 0x17, 0x3d, 
	0xf6, 0xd7, 0x4c, 0xbe, 0x69, 0xac, 0xd9, 0xbe, 0x6c, 0x59, 0x8e, 0x3d, 
	0x4a, 0x49, 0x14, 0xbe, 0x20, 0xa4, 0x21, 0x3e, 0xd6, 0xc8, 0xf5, 0xbc, 
	0x84, 0x8c, 0xb1, 0xbe, 0x16, 0x7d, 0x73, 0x3e, 0xca, 0xfa, 0x7e, 0x3d, 
	0x74, 0xe8, 0xc4, 0xbe, 0x5f, 0x85, 0xa2, 0x3c, 0x6e, 0xe7, 0xa2, 0xbe, 
	0x73, 0xda, 0xc4, 0x3d, 0x70, 0x8d, 0xca, 0xbe, 0xf7, 0xdc, 0x0c, 0xbf, 
	0xca, 0xb7, 0x96, 0x3e, 0xe1, 0x11, 0xcd, 0x3d, 0x49, 0x06, 0xc9, 0xbe, 
	0xe3, 0x06, 0x49, 0xbd, 0x4d, 0x53, 0xd6, 0x3d, 0x3a, 0x0d, 0x81, 0xbd, 
	0x31, 0x2b, 0x3e, 0xbf, 0x93, 0x84, 0xeb, 0xbc, 0xaa, 0x88, 0xa0, 0xbd, 
	0x1a, 0x56, 0x34, 0x3e, 0xcc, 0xaa, 0x6c, 0xbd, 0x3f, 0xdf, 0x9a, 0xbb, 
	0x3b, 0x1d, 0xd2, 0xbc, 0xf6, 0x4a, 0x8d, 0xbc, 0x75, 0x13, 0x91, 0xbe, 
	0x89, 0x25, 0x9b, 0xbd, 0x2c, 0xe6, 0x40, 0xbd, 0x9b, 0x66, 0x1b, 0x3d, 
	0xa8, 0x17, 0x86, 0xbe, 0x63, 0xa1, 0xc5, 0xbd, 0x0d, 0x4a, 0x35, 0x3d, 
	0x82, 0x97, 0xb2, 0xbd, 0x8e, 0xbb, 0xe8, 0xbb, 0x1e, 0xda, 0x7c, 0xbe, 
	0x29, 0x66, 0xc5, 0xbd, 0xc4, 0x83, 0xb3, 0xbc, 0xb7, 0xc4, 0xb9, 0x3d, 
	0x59, 0xc6, 0x05, 0xbe, 0xec, 0x9c, 0x00, 0x3e, 0x7c, 0x9f, 0x4c, 0x3a, 
	0x2c, 0x53, 0xf0, 0xbd, 0xb8, 0x37, 0x5d, 0x3d, 0x45, 0x69, 0xe7, 0xbc, 
	0x38, 0xfb, 0x75, 0xbc, 0x3a, 0x15, 0x5b, 0xbe, 0x98, 0x67, 0x1e, 0x3e, 
	0x40, 0xb6, 0x1c, 0xbe, 0x82, 0x8c, 0x3b, 0xbe, 0x06, 0x1a, 0xe1, 0x3d, 
	0x53, 0xfb, 0xaa, 0xbe, 0x87, 0x57, 0xdd, 0x3d, 0xce, 0x2c, 0x82, 0xbe, 
	0x09, 0xe6, 0xef, 0xbe, 0x47, 0x1e, 0x0d, 0x3e, 0x2c, 0xc5, 0xf1, 0xbd, 
	0xee, 0x79, 0x27, 0xbe, 0xb4, 0xcc, 0xaa, 0xbd, 0x71, 0xaa, 0x81, 0xbe, 
	0xa1, 0x84, 0xc2, 0xbe, 0x44, 0x07, 0x07, 0xbe, 0x03, 0x27, 0x84, 0xbe, 
	0xda, 0x73, 0x1e, 0xbe, 0x4d, 0x3c, 0x9d, 0x3e, 0xb3, 0xa2, 0x4c, 0xbe, 
	0x5e, 0x51, 0x03, 0xbf, 0x99, 0xf7, 0x82, 0x3d, 0xa6, 0x88, 0xb4, 0xbe, 
	0xbc, 0x03, 0xf0, 0x3d, 0x25, 0x9e, 0x11, 0x3d, 0x85, 0x65, 0x7d, 0xbe, 
	0x6d, 0xc8, 0x2a, 0x3e, 0x9d, 0x16, 0xd2, 0xbc, 0x4e, 0x81, 0x0e, 0xbf, 
	0x92, 0xa1, 0x05, 0xbe, 0xa8, 0xda, 0x74, 0xbd, 0xef, 0x62, 0x13, 0x3e, 
	0x5a, 0xe2, 0x3c, 0xbe, 0xe8, 0x21, 0x03, 0xbe, 0x9a, 0x08, 0x52, 0x3e, 
	0x75, 0xc1, 0xcd, 0xbd, 0xda, 0x95, 0xac, 0xbe, 0x28, 0xb6, 0xbd, 0xbe, 
	0x57, 0xb0, 0x1c, 0x3e, 0xff, 0x17, 0x4c, 0xbd, 0xe7, 0xa6, 0x63, 0xbe, 
	0x51, 0x2d, 0xd6, 0xbd, 0x35, 0x2c, 0xe1, 0xbc, 0x2e, 0x95, 0x48, 0x3d, 
	0x14, 0xcd, 0x78, 0xbe, 0xc8, 0x23, 0xb0, 0xbd, 0x32, 0x34, 0x70, 0x3d, 
	0x37, 0xda, 0xe7, 0x3d, 0x3c, 0xe7, 0x8b, 0x3d, 0xc0, 0xd3, 0xb0, 0x3e, 
	0x88, 0x7d, 0x12, 0x3d, 0x8c, 0xf9, 0x03, 0xbf, 0x7d, 0xbf, 0x07, 0x3f, 
	0xeb, 0xd0, 0x4c, 0xbe, 0x1a, 0x5b, 0xd7, 0xbe, 0xc3, 0x8c, 0xb5, 0xbe, 
	0x1f, 0xea, 0x5e, 0xbd, 0x55, 0x43, 0xb4, 0x3e, 0x45, 0x9e, 0xf8, 0x3d, 
	0xb9, 0xaf, 0xc5, 0xbe, 0x56, 0x99, 0xc2, 0x3e, 0x05, 0xa5, 0xb0, 0x3e, 
	0xd9, 0x9f, 0x19, 0xbf, 0xf8, 0x5b, 0x98, 0xbe, 0xaa, 0xa7, 0x8f, 0xbd, 
	0x74, 0x43, 0x12, 0xbf, 0xc3, 0x33, 0x5e, 0x3d, 0x4b, 0x6a, 0xa3, 0xbd, 
	0xf2, 0x05, 0x30, 0x3e, 0xa1, 0x6d, 0x9d, 0x3d, 0x38, 0xf3, 0x39, 0xbe, 
	0x69, 0x8a, 0x84, 0xbe, 0x99, 0xc9, 0xcf, 0x3c, 0x12, 0x05, 0x1f, 0xbd, 
	0xee, 0x4a, 0x09, 0xbf, 0xa6, 0x1a, 0x12, 0x3e, 0x91, 0x2d, 0x05, 0x3e, 
	0x52, 0x11, 0x33, 0xbe, 0xa7, 0xe2, 0xfb, 0x3d, 0x73, 0x34, 0xab, 0xbe, 
	0xc1, 0x2d, 0x6c, 0xbe, 0x92, 0xdf, 0x9a, 0xbd, 0x16, 0xcd, 0x49, 0x3e, 
	0xa0, 0x6a, 0x5b, 0xbe, 0x4a, 0x15, 0xaa, 0xbe, 0x3e, 0xfd, 0x90, 0xbe, 
	0x9a, 0x7e, 0xf9, 0xbb, 0x58, 0xf4, 0x9e, 0xbe, 0x2f, 0x69, 0xa9, 0xbe, 
	0xd8, 0xc9, 0x82, 0xbe, 0xfd, 0xf8, 0x74, 0x3e, 0x49, 0x06, 0x8a, 0xbe, 
	0xc1, 0x61, 0x0e, 0xbf, 0x1a, 0xd8, 0x37, 0x3e, 0xed, 0x0a, 0x3a, 0xbe, 
	0x06, 0x82, 0xc8, 0x3e, 0xd2, 0x61, 0xef, 0x3c, 0x27, 0x20, 0x3c, 0xbd, 
	0xf9, 0x50, 0xbf, 0xbd, 0xef, 0xfa, 0x00, 0xbe, 0x66, 0xf5, 0x4b, 0x3e, 
	0x2c, 0x27, 0x83, 0x3d, 0x75, 0x51, 0x12, 0xbe, 0xe8, 0xe4, 0xe5, 0xbd, 
	0xfb, 0x4a, 0x23, 0x3e, 0xa2, 0xca, 0x80, 0xbe, 0xc8, 0x04, 0x60, 0x3e, 
	0xa6, 0x40, 0x01, 0xbe, 0x1b, 0x47, 0x29, 0x3e, 0xd1, 0x50, 0x8e, 0x3e, 
	0x80, 0xb1, 0x23, 0xbe, 0xab, 0xc6, 0xe7, 0xbd, 0xd9, 0x59, 0x4f, 0x3e, 
	0xc5, 0xbe, 0x06, 0x3d, 0xda, 0xa6, 0x13, 0xbd, 0xe8, 0xd4, 0x31, 0xbd, 
	0x7b, 0x4c, 0x4a, 0x3e, 0xeb, 0xed, 0x83, 0x3e, 0x1c, 0x63, 0xc1, 0xbd, 
	0x9d, 0x4a, 0x13, 0x3d, 0xd3, 0xd5, 0x10, 0x3e, 0x8e, 0xb1, 0xe9, 0x3d, 
	0x4c, 0x66, 0x81, 0xbe, 0x0e, 0x78, 0xe6, 0xbd, 0xd7, 0x74, 0xd0, 0x3e, 
	0x42, 0x8e, 0xab, 0xbd, 0x02, 0x74, 0xc8, 0xbd, 0x7f, 0xe0, 0x09, 0xbf, 
	0x04, 0x8f, 0x27, 0x3d, 0x93, 0x86, 0x68, 0x3d, 0xf8, 0xca, 0xbb, 0x3e, 
	0x29, 0xa8, 0x3d, 0xbe, 0x04, 0x90, 0xbb, 0x3d, 0xe3, 0xa6, 0xd4, 0x3e, 
	0x67, 0x04, 0x85, 0xbe, 0xb9, 0x7c, 0x4a, 0xbf, 0xef, 0xd1, 0x61, 0x3e, 
	0xdf, 0xf1, 0x83, 0xbe, 0x1e, 0xe7, 0x8b, 0x3e, 0xfa, 0xde, 0xa5, 0x3e, 
	0xdf, 0x40, 0xc1, 0x3e, 0xdd, 0x9c, 0xf8, 0x3e, 0x68, 0x22, 0x77, 0xbe, 
	0x7d, 0x5f, 0x14, 0xbf, 0x09, 0xa6, 0x0e, 0x3e, 0x99, 0xeb, 0xaf, 0xbc, 
	0x5a, 0x70, 0x62, 0x3c, 0x3c, 0x26, 0xec, 0x3c, 0x3b, 0x85, 0x24, 0x3d, 
	0xab, 0x49, 0xcc, 0x3b, 0xc4, 0xcf, 0x81, 0xbd, 0x81, 0xd6, 0x0f, 0x3e, 
	0x0d, 0x53, 0x8a, 0xbd, 0x2b, 0xcd, 0xcc, 0xbe, 0x6d, 0x67, 0xb4, 0x3d, 
	0x05, 0x6a, 0x83, 0x3e, 0x9e, 0x50, 0x37, 0xbf, 0xd8, 0x0e, 0x17, 0x3e, 
	0x18, 0xc2, 0x65, 0x3e, 0xdf, 0xd8, 0x22, 0x3c, 0xec, 0x72, 0x83, 0x3e, 
	0xb1, 0x5b, 0x4d, 0x3d, 0xd8, 0x0d, 0xe7, 0xbd, 0x1c, 0xb6, 0x0b, 0xba, 
	0xc9, 0x93, 0x15, 0xbe, 0x11, 0xbe, 0x1b, 0xbe, 0xf6, 0x8e, 0x90, 0x3d, 
	0xd5, 0x58, 0x50, 0x3e, 0xde, 0xe1, 0xf6, 0x3d, 0x38, 0xd7, 0x10, 0x3e, 
	0x02, 0x06, 0x3d, 0x3c, 0xca, 0x00, 0xec, 0xbd, 0x8e, 0xfa, 0x8b, 0x3e, 
	0x7c, 0x1d, 0x4c, 0x3e, 0x56, 0x31, 0x53, 0x3e, 0x4f, 0x58, 0x33, 0x3e, 
	0x20, 0x41, 0x7c, 0x3e, 0xb3, 0x7a, 0x65, 0xbe, 0xfc, 0x6b, 0x37, 0x3e, 
	0x3c, 0x4a, 0xf6, 0xbb, 0x8a, 0xd5, 0xc0, 0x3e, 0xf2, 0x31, 0xd5, 0x3e, 
	0x06, 0xf4, 0x9a, 0xbd, 0x6c, 0xfc, 0xee, 0xbd, 0xd3, 0xbc, 0xa6, 0x3e, 
	0x26, 0x83, 0x81, 0xbb, 0xba, 0xd0, 0x17, 0xbf, 0xa6, 0x76, 0x98, 0x3e, 
	0x0e, 0x83, 0xa2, 0x3e, 0xe8, 0xe9, 0x31, 0xbd, 0xac, 0xd9, 0x02, 0x3e, 
	0x01, 0x35, 0xe2, 0xbe, 0x05, 0x4d, 0x13, 0x3d, 0x48, 0x92, 0xd0, 0xbe, 
	0x00, 0x5c, 0x74, 0x3c, 0x41, 0x5e, 0xae, 0x3c, 0x78, 0x6e, 0xd1, 0xbc, 
	0x35, 0x4b, 0x78, 0xbd, 0xbd, 0x42, 0x5b, 0x3e, 0x85, 0x03, 0xca, 0xbd, 
	0xe9, 0x31, 0x4e, 0xbe, 0xee, 0x87, 0x8b, 0xbc, 0x36, 0x47, 0x74, 0xbe, 
	0x5e, 0x3c, 0x97, 0x3c, 0x43, 0x98, 0x32, 0x3e, 0x6a, 0x48, 0xa3, 0xbe, 
	0xfb, 0x90, 0x32, 0x3e, 0x62, 0x4a, 0x90, 0x3d, 0x43, 0x8d, 0x41, 0xbe, 
	0xd2, 0x0b, 0x2b, 0xbd, 0x67, 0x82, 0x08, 0x3e, 0xf7, 0xf7, 0x35, 0xbd, 
	0x4c, 0xd1, 0xc0, 0xbe, 0x31, 0xd3, 0x15, 0xbe, 0x89, 0x04, 0xab, 0xbb, 
	0xd4, 0x9a, 0x09, 0x3e, 0x6f, 0x86, 0x86, 0xbd, 0xfc, 0x03, 0x3d, 0x3d, 
	0xfa, 0x59, 0x0d, 0x3e, 0x08, 0x62, 0x4e, 0x3e, 0xea, 0xd9, 0x07, 0xbf, 
	0xc6, 0xff, 0xd9, 0xbe, 0x11, 0xf4, 0x88, 0x3d, 0x87, 0xc0, 0xbe, 0x3d, 
	0x5c, 0x96, 0x10, 0xbe, 0x9b, 0x7b, 0x7a, 0x3e, 0x7d, 0xe4, 0xc4, 0x3d, 
	0x78, 0x65, 0x3f, 0x3e, 0xb2, 0x66, 0x06, 0xbd, 0xbb, 0x01, 0xfa, 0xbe, 
	0x6c, 0x0e, 0x47, 0x3e, 0xa2, 0xc0, 0xcb, 0x3c, 0xa7, 0xcc, 0x63, 0x3d, 
	0x7a, 0x22, 0x60, 0xbc, 0xb8, 0x09, 0x84, 0x3d, 0xa4, 0x91, 0x8c, 0xbe, 
	0x3f, 0xe0, 0xa4, 0x39, 0xbe, 0xa2, 0x96, 0xbd, 0x6b, 0xad, 0x60, 0x3d, 
	0x17, 0x66, 0x0d, 0x3d, 0xa5, 0xcc, 0xd2, 0xbe, 0x6a, 0x7d, 0x24, 0xbe, 
	0xa9, 0x03, 0xa4, 0xbe, 0x11, 0x38, 0x7c, 0x3d, 0x22, 0xc1, 0x83, 0xbe, 
	0x75, 0x5a, 0x3f, 0xbe, 0xb9, 0x4e, 0x2f, 0x3e, 0xcf, 0x41, 0xeb, 0x3b, 
	0xdb, 0x82, 0x98, 0xbd, 0x4f, 0x25, 0xa2, 0x3e, 0x0e, 0x0f, 0x06, 0xbe, 
	0x3f, 0x4f, 0x65, 0xbe, 0x39, 0xda, 0x61, 0xbe, 0x81, 0xdf, 0x6f, 0xbe, 
	0xce, 0xd9, 0x0e, 0xbd, 0xb7, 0xbe, 0x58, 0xbe, 0xda, 0xd6, 0x92, 0xbe, 
	0x3f, 0x05, 0x43, 0xbe, 0xa5, 0x72, 0x0a, 0x3e, 0x48, 0x45, 0xf7, 0xbd, 
	0x2e, 0x5b, 0x78, 0xbf, 0xde, 0x89, 0x50, 0x3e, 0x8e, 0x21, 0xa6, 0xbe, 
	0xa5, 0x73, 0xd4, 0x3d, 0x4d, 0xdc, 0xfa, 0xbc, 0xe5, 0x7b, 0x1c, 0xbe, 
	0xa7, 0xc8, 0x28, 0x3e, 0x80, 0xe2, 0x69, 0x3d, 0x5a, 0x47, 0x63, 0xbe, 
	0x3c, 0x83, 0x45, 0xbe, 0x07, 0x9f, 0xf1, 0xbd, 0x0c, 0xa8, 0x9d, 0xbd, 
	0x9c, 0xbf, 0x1d, 0x3d, 0x56, 0x70, 0x12, 0x3e, 0xe9, 0xcd, 0x92, 0x3e, 
	0x14, 0xc2, 0x04, 0x3e, 0xd7, 0x7b, 0x82, 0xbd, 0x4b, 0xe3, 0x0c, 0xbe, 
	0x3d, 0xce, 0x5c, 0x3d, 0x5c, 0x61, 0x97, 0xbe, 0x87, 0x72, 0xb7, 0xbe, 
	0xe4, 0xb5, 0x22, 0xbc, 0xdd, 0x6c, 0xe2, 0x3e, 0x69, 0x9d, 0x14, 0xbe, 
	0x21, 0xeb, 0xc7, 0xbe, 0x11, 0x9d, 0xa0, 0x3d, 0x09, 0xd4, 0x75, 0x3d, 
	0x84, 0x34, 0xc4, 0x3e, 0x5b, 0x56, 0x1a, 0x3d, 0x2d, 0x89, 0xaf, 0x3e, 
	0x54, 0x88, 0x92, 0xbe, 0x17, 0x28, 0xe0, 0xbd, 0x15, 0x07, 0x17, 0x3f, 
	0xba, 0x8f, 0xa9, 0xbe, 0x86, 0xbf, 0x01, 0xbe, 0xb3, 0xad, 0xfc, 0xbd, 
	0xcc, 0x12, 0x16, 0xbe, 0x2a, 0x0f, 0x16, 0x3e, 0x80, 0x21, 0x95, 0xba, 
	0x30, 0xc5, 0x01, 0xbf, 0x96, 0x13, 0x80, 0x3e, 0x99, 0x0c, 0x44, 0x3e, 
	0x00, 0xe9, 0x53, 0xbe, 0x6a, 0xef, 0xbe, 0xbe, 0xad, 0x40, 0x11, 0xbe, 
	0x78, 0xb0, 0x9e, 0xbe, 0xdf, 0x43, 0xbe, 0x3e, 0xc4, 0x8b, 0xdc, 0xbd, 
	0xb5, 0x16, 0x0e, 0xbf, 0x71, 0x76, 0x0b, 0x3f, 0x52, 0xd9, 0xdd, 0xbe, 
	0x7c, 0x9a, 0x1e, 0x3e, 0x67, 0xac, 0x59, 0x3d, 0xf1, 0x8a, 0xc8, 0x3b, 
	0x84, 0x56, 0x89, 0xbe, 0xf6, 0x58, 0x2e, 0xbe, 0x27, 0x8d, 0x17, 0x3e, 
	0x92, 0x80, 0x1a, 0xbe, 0x85, 0xbf, 0x08, 0xbe, 0x2a, 0xc0, 0x1c, 0xbc, 
	0x55, 0xd3, 0x37, 0xbe, 0x6e, 0x73, 0x43, 0x3d, 0x5c, 0xcc, 0xa3, 0x3e, 
	0x7b, 0x66, 0x32, 0x3a, 0x65, 0xaa, 0xc7, 0x3d, 0x94, 0x00, 0x37, 0x3e, 
	0x05, 0x8d, 0x2a, 0xbd, 0x3b, 0x5c, 0x2d, 0xbf, 0xf1, 0x9a, 0x1d, 0xbe, 
	0xbd, 0x76, 0xff, 0xbc, 0x7f, 0xe6, 0xc0, 0x3e, 0xe2, 0xfa, 0x37, 0x3d, 
	0x39, 0xc1, 0xdd, 0xbc, 0x85, 0x7c, 0xbf, 0x3e, 0xc7, 0x40, 0x2d, 0xbd, 
	0x14, 0xdb, 0x7b, 0x3e, 0xa5, 0x4a, 0xc8, 0xbd, 0x1d, 0x14, 0xc6, 0x3e, 
	0x05, 0x26, 0x14, 0xbe, 0xf9, 0x2f, 0x29, 0xbe, 0x7d, 0xf6, 0x81, 0x3e, 
	0x64, 0x38, 0x31, 0xbe, 0x7f, 0x92, 0x23, 0xbe, 0xb8, 0x2f, 0x77, 0xbe, 
	0x88, 0xca, 0xc6, 0xbe, 0xd5, 0x85, 0xb4, 0xbe, 0x05, 0x57, 0xba, 0xbd, 
	0x3b, 0x9e, 0x00, 0xbe, 0x1b, 0x3a, 0xd5, 0x3d, 0x41, 0xd8, 0xab, 0xbd, 
	0x78, 0x96, 0x21, 0xbd, 0x2a, 0xea, 0x92, 0xbe, 0x9d, 0x94, 0xca, 0xbe, 
	0x2e, 0x6c, 0x20, 0xbf, 0x61, 0x86, 0x66, 0x3e, 0x95, 0xcd, 0xc8, 0x3d, 
	0x56, 0x90, 0x65, 0xbf, 0xf3, 0x37, 0x92, 0x3e, 0x33, 0xe9, 0xf0, 0xbd, 
	0x79, 0x99, 0x86, 0x3d, 0x30, 0x8b, 0x20, 0x3e, 0xbf, 0x0a, 0x08, 0xbe, 
	0xad, 0x04, 0x14, 0xbe, 0x9b, 0x83, 0xf7, 0xbb, 0x26, 0xbb, 0x74, 0xbe, 
	0xac, 0x25, 0x2e, 0xbe, 0x10, 0x3a, 0xa8, 0xbd, 0x9b, 0xeb, 0x74, 0x3e, 
	0xaa, 0x54, 0xb0, 0x3c, 0xd5, 0x4a, 0xf2, 0xbd, 0x90, 0x34, 0x9c, 0x3c, 
	0x61, 0xf7, 0x8a, 0xbe, 0x90, 0x44, 0xce, 0x3e, 0xc3, 0x3c, 0x68, 0x3e, 
	0x3a, 0x40, 0xbc, 0xbd, 0xf0, 0x4a, 0xc8, 0x3c, 0xf6, 0xb3, 0x9f, 0x3e, 
	0xdf, 0x28, 0xda, 0xbd, 0x55, 0x1c, 0x0d, 0xbe, 0x1e, 0x01, 0x49, 0xbd, 
	0xd5, 0x98, 0x42, 0x3e, 0xb5, 0xee, 0xf1, 0x3e, 0xb3, 0xac, 0xe4, 0xbd, 
	0xf3, 0xe5, 0x40, 0xbf, 0x5a, 0x7b, 0xaa, 0x3e, 0xb2, 0xe2, 0x80, 0x3e, 
	0x9f, 0x90, 0xfb, 0x3d, 0xbf, 0x2e, 0xae, 0xbe, 0x1f, 0x05, 0x26, 0x3e, 
	0x15, 0x42, 0x33, 0x3c, 0x3c, 0x0a, 0xd8, 0xbe, 0x07, 0x9f, 0x89, 0xbd, 
	0xfb, 0x0d, 0x0a, 0x3d, 0x7f, 0xcb, 0x4a, 0x3d, 0xde, 0xef, 0x3a, 0xbd, 
	0x32, 0x63, 0xeb, 0xbe, 0xaf, 0x1f, 0x60, 0x3e, 0xc6, 0x0b, 0x2f, 0x3e, 
	0xf4, 0x60, 0x07, 0xbf, 0xf5, 0x26, 0x23, 0xbe, 0xc8, 0x5c, 0x1b, 0xbe, 
	0x8e, 0x73, 0x96, 0xbe, 0xdf, 0x05, 0x31, 0x3e, 0x13, 0x20, 0x06, 0x3e, 
	0x5a, 0x7f, 0x00, 0xbd, 0xb1, 0x12, 0x05, 0x3e, 0xc0, 0x28, 0x82, 0xbe, 
	0xc0, 0x15, 0x8e, 0xbe, 0xd8, 0x96, 0x44, 0x3d, 0x7e, 0xbd, 0xa1, 0xbd, 
	0xb6, 0x72, 0x1a, 0x3e, 0x5b, 0x90, 0xe0, 0x3d, 0xba, 0xf0, 0xf9, 0xbe, 
	0xae, 0xa7, 0xea, 0xbd, 0x32, 0x38, 0x11, 0xbe, 0xe3, 0xbd, 0x05, 0x3e, 
	0xfb, 0x38, 0x41, 0x3e, 0x62, 0x5d, 0xb9, 0x3d, 0xc7, 0x8a, 0x7f, 0x3e, 
	0xa0, 0xb8, 0x52, 0x3e, 0x4a, 0x5b, 0xfb, 0xbd, 0xa8, 0xac, 0x74, 0x3d, 
	0x2a, 0x63, 0xfe, 0x3d, 0xd8, 0x6f, 0x94, 0x3e, 0xf0, 0x5f, 0x2d, 0x3e, 
	0x3b, 0xeb, 0x8c, 0x3d, 0xe5, 0x85, 0x02, 0xbf, 0x14, 0xc6, 0x0c, 0x3e, 
	0xfd, 0x70, 0x70, 0x3e, 0x4a, 0xd3, 0x66, 0xbe, 0x7f, 0xa1, 0x19, 0x3e, 
	0x8e, 0x68, 0x3e, 0xbe, 0xc4, 0x98, 0x8a, 0x3e, 0x1e, 0x2b, 0xa9, 0x3e, 
	0x54, 0xa8, 0x80, 0x3d, 0xc7, 0xf5, 0x02, 0xbd, 0xd6, 0x80, 0x23, 0x3e, 
	0xa8, 0x1d, 0xe5, 0x3d, 0xc8, 0x70, 0xf4, 0xbc, 0xcc, 0x29, 0xdf, 0xbb, 
	0x63, 0x6d, 0x7d, 0x3e, 0x49, 0x1d, 0x78, 0xbc, 0x8e, 0x02, 0x31, 0x3c, 
	0x49, 0x0c, 0xb9, 0xbe, 0xac, 0x42, 0xc3, 0x3e, 0xc1, 0x87, 0x0d, 0xbd, 
	0x77, 0x50, 0x43, 0x3d, 0x8f, 0x42, 0x49, 0xbe, 0x6f, 0xdd, 0x7b, 0x3d, 
	0x5f, 0xb3, 0x35, 0xbe, 0x5f, 0xb5, 0xcc, 0x3d, 0x66, 0xf1, 0x85, 0xbe, 
	0x4f, 0xcf, 0x38, 0x3e, 0x19, 0x0b, 0x7c, 0x3e, 0xc2, 0x81, 0x97, 0xbd, 
	0xb8, 0x7d, 0x46, 0xbe, 0xe2, 0x23, 0x30, 0x3d, 0x10, 0x4f, 0x40, 0xbe, 
	0x78, 0x3b, 0x32, 0xbd, 0xbe, 0x9f, 0x14, 0xbd, 0x59, 0x51, 0x0e, 0xbe, 
	0x90, 0x4c, 0x6a, 0x3d, 0xb5, 0x10, 0x4d, 0xbc, 0x0f, 0x51, 0xbc, 0xbc, 
	0xa7, 0xdb, 0x1c, 0x3d, 0x20, 0x99, 0xd5, 0xbd, 0xfe, 0xfd, 0x75, 0x3e, 
	0xa2, 0x98, 0x12, 0x3e, 0x62, 0x5b, 0xab, 0xbe, 0x2f, 0xfd, 0xcd, 0x3c, 
	0x06, 0x32, 0x2b, 0xbd, 0xf5, 0x4d, 0x0d, 0x3d, 0x57, 0x93, 0xf0, 0x3c, 
	0xc5, 0x9f, 0x19, 0x3e, 0xcb, 0x97, 0xe0, 0xbe, 0xf2, 0x0e, 0x71, 0x3d, 
	0x2f, 0x42, 0x98, 0xbd, 0x73, 0xa0, 0xc6, 0xbe, 0x66, 0x13, 0x85, 0x3e, 
	0xd1, 0x9e, 0xd7, 0xbd, 0x06, 0xf9, 0x30, 0x3e, 0xef, 0x14, 0x99, 0x3e, 
	0x80, 0xf1, 0xf6, 0x36, 0x02, 0x7e, 0x14, 0xbf, 0x61, 0xbe, 0xaf, 0x3e, 
	0xf3, 0xd2, 0x5f, 0xbe, 0x21, 0x25, 0x1f, 0xbf, 0xf8, 0xee, 0x71, 0xbe, 
	0x7d, 0xce, 0x60, 0xbe, 0xf9, 0x2c, 0xbc, 0x3e, 0xc0, 0xfa, 0x46, 0x3e, 
	0x11, 0x39, 0x27, 0xbe, 0xc2, 0x72, 0x6c, 0x3e, 0x7f, 0xbc, 0x9e, 0x3e, 
	0x7e, 0x08, 0xc1, 0xbe, 0x22, 0x6e, 0x97, 0xbe, 0xc6, 0x45, 0x75, 0x3d, 
	0x9b, 0x4f, 0x98, 0xbc, 0x17, 0x03, 0x9a, 0x3e, 0x39, 0xac, 0x19, 0xbe, 
	0x96, 0x1d, 0x3b, 0x3d, 0x75, 0x2c, 0x3d, 0x3e, 0x5a, 0x35, 0x63, 0xbe, 
	0xa0, 0x44, 0x1c, 0xbe, 0x2e, 0x8a, 0xf2, 0x3d, 0x11, 0x22, 0x52, 0x3e, 
	0xaa, 0x61, 0x7c, 0xbc, 0xac, 0x9d, 0x89, 0xbe, 0xee, 0x6f, 0xad, 0x3e, 
	0xc8, 0x0d, 0xfe, 0x3c, 0xb3, 0x96, 0x90, 0x3b, 0xba, 0xb3, 0xaa, 0xbe, 
	0xfd, 0x18, 0x4a, 0xbd, 0x9e, 0x0a, 0x3e, 0xbe, 0x46, 0xec, 0xf3, 0x3d, 
	0xad, 0xa9, 0xf8, 0xbe, 0xbe, 0xb0, 0x3d, 0x3e, 0x2f, 0x78, 0x89, 0x3e, 
	0x6c, 0x8c, 0xb5, 0xbd, 0x5f, 0xa6, 0xd5, 0xbe, 0x1e, 0x9b, 0x3b, 0x3d, 
	0xc8, 0xef, 0x8a, 0xbe, 0x9b, 0x7b, 0x8d, 0x3e, 0x65, 0x8c, 0xa1, 0xbd, 
	0xcf, 0xdc, 0x13, 0x3e, 0xde, 0x87, 0x01, 0x3f, 0x89, 0x45, 0xd4, 0xbe, 
	0x2a, 0xe3, 0xf7, 0xbe, 0xba, 0x38, 0x88, 0x3e, 0x35, 0x1b, 0x86, 0x3e, 
	0x1e, 0xde, 0x26, 0x3d, 0x7e, 0x54, 0xa9, 0xbd, 0xe9, 0xdc, 0x85, 0x3e, 
	0xf4, 0xaf, 0x20, 0x3e, 0x6c, 0x3d, 0xa7, 0xbe, 0xb5, 0x12, 0x3f, 0xbe, 
	0xca, 0x25, 0xb9, 0x38, 0x02, 0xcd, 0xd1, 0xbe, 0x4d, 0x15, 0x22, 0x3d, 
	0xa6, 0xe9, 0x4e, 0x3d, 0x51, 0xbf, 0x94, 0x3e, 0x80, 0xbd, 0x3a, 0x3e, 
	0xb8, 0xb4, 0x27, 0xbe, 0x5b, 0x52, 0x83, 0xbe, 0xe0, 0xbe, 0x71, 0x3d, 
	0xd6, 0x3e, 0x06, 0xbe, 0x65, 0x45, 0x8b, 0xbe, 0x69, 0xc6, 0x20, 0x3c, 
	0xa4, 0xda, 0x89, 0x3e, 0x80, 0x60, 0x1f, 0x3d, 0xa3, 0xb8, 0xca, 0xbd, 
	0xf2, 0xeb, 0xa1, 0xbd, 0x4a, 0xc6, 0x9e, 0xbd, 0x16, 0x54, 0xf9, 0x3c, 
	0xfe, 0x4b, 0x9a, 0xbd, 0x92, 0x2d, 0x67, 0xbe, 0xff, 0xd6, 0x21, 0x3e, 
	0xa4, 0x7d, 0xb3, 0x3d, 0x07, 0x90, 0xf9, 0xbd, 0xe9, 0x18, 0x0f, 0xbe, 
	0x62, 0x84, 0x54, 0xbd, 0x49, 0x7a, 0xbc, 0xbd, 0xaf, 0x11, 0x68, 0x3d, 
	0xef, 0x4d, 0xaa, 0xbe, 0x43, 0x48, 0x5d, 0x3e, 0xf6, 0x4d, 0x18, 0x3e, 
	0xd5, 0x2e, 0x0a, 0xbc, 0xf1, 0xc1, 0x74, 0xbe, 0xb4, 0x04, 0xf9, 0x3d, 
	0xad, 0x92, 0xe9, 0xbd, 0xc4, 0xde, 0xee, 0xbd, 0xa1, 0x9b, 0xd8, 0xbd, 
	0xf7, 0x71, 0x36, 0x3e, 0xe4, 0x08, 0x87, 0x3b, 0x0f, 0x59, 0x27, 0xbe, 
	0x01, 0x6b, 0xc8, 0xbe, 0x9d, 0x10, 0x89, 0x3e, 0xf0, 0x7f, 0x93, 0xbd, 
	0x79, 0xdc, 0xf5, 0x3d, 0xb3, 0xc3, 0xf6, 0x3c, 0xbb, 0x0f, 0xa0, 0xbe, 
	0x0f, 0xd8, 0x3f, 0x3d, 0x3f, 0x08, 0x5b, 0xbe, 0x4d, 0x1c, 0x17, 0x3e, 
	0xdb, 0xd9, 0xfe, 0x3c, 0x76, 0x45, 0xcf, 0x3d, 0xbc, 0x80, 0x30, 0xbd, 
	0xeb, 0x86, 0xcc, 0x3d, 0xc9, 0xcd, 0x33, 0x3c, 0xe3, 0x5e, 0x21, 0xbe, 
	0x8b, 0x41, 0xcd, 0x3d, 0xa6, 0xa7, 0x2d, 0xbe, 0xe1, 0x3e, 0x40, 0x3d, 
	0x70, 0x09, 0xdd, 0x3d, 0xc7, 0xc3, 0x69, 0x3d, 0x4c, 0x15, 0xd9, 0xbc, 
	0xc5, 0x12, 0x72, 0xbe, 0xd6, 0x9a, 0x58, 0xbe, 0x3c, 0x67, 0x14, 0x3e, 
	0x24, 0x6c, 0x0e, 0xbe, 0x9c, 0x14, 0xd4, 0x3d, 0xbe, 0x2d, 0x18, 0x3e, 
	0xc8, 0x99, 0x27, 0x3e, 0xd0, 0xa2, 0xa3, 0xbc, 0xe2, 0xc2, 0x98, 0xbe, 
	0x46, 0xf1, 0x90, 0xbe, 0x29, 0xd6, 0xce, 0xbd, 0xf6, 0xc7, 0x07, 0xbd, 
	0x35, 0x56, 0x5a, 0x3d, 0x65, 0x4a, 0x96, 0x3d, 0x54, 0x76, 0x5f, 0x3e, 
	0x20, 0x2e, 0x4d, 0x3e, 0x2b, 0xbf, 0x72, 0xbd, 0x6d, 0x10, 0x53, 0x3d, 
	0x8d, 0x7b, 0x6f, 0x3d, 0x4d, 0xdf, 0x02, 0xbd, 0xff, 0xc2, 0x7e, 0x3d, 
	0x79, 0x38, 0xd0, 0xbd, 0xa5, 0x73, 0x89, 0xbe, 0x6c, 0xa1, 0x83, 0x3e, 
	0x8e, 0xc6, 0xe6, 0x3d, 0xdb, 0x43, 0xff, 0xbd, 0x6c, 0x88, 0x41, 0xbd, 
	0x72, 0xa1, 0x9d, 0x3c, 0xe1, 0xf8, 0x0f, 0x3e, 0x00, 0x69, 0x54, 0xbf, 
	0xff, 0x38, 0x82, 0xbd, 0x77, 0xc3, 0x94, 0x3e, 0x5e, 0x3d, 0x01, 0xbe, 
	0xcb, 0xdd, 0xa9, 0xbd, 0xb9, 0xe6, 0x67, 0x3e, 0xd1, 0xce, 0x8b, 0x3e, 
	0x33, 0x2a, 0x66, 0x3e, 0xaf, 0x40, 0xfa, 0x3e, 0xd2, 0x5f, 0xce, 0xbd, 
	0x2b, 0x6e, 0x68, 0x3c, 0xc5, 0xd2, 0x98, 0x3d, 0x10, 0xe3, 0xa2, 0xbc, 
	0xa1, 0xb7, 0xf6, 0x3d, 0x0f, 0xa0, 0xec, 0x3d, 0x7d, 0x78, 0xce, 0x3c, 
	0x59, 0x20, 0x11, 0xbc, 0x9d, 0x2f, 0x39, 0x3e, 0xd3, 0x42, 0xfd, 0xbc, 
	0xfd, 0x4e, 0x3a, 0xbe, 0x2a, 0xde, 0xc2, 0x3c, 0xa5, 0x9e, 0x0c, 0x3d, 
	0x21, 0x08, 0x25, 0xbc, 0x6f, 0xa1, 0xdc, 0x3d, 0x34, 0xfc, 0x74, 0xbe, 
	0xc3, 0x57, 0xab, 0xbe, 0x86, 0x97, 0x72, 0x3e, 0xe2, 0xf2, 0x86, 0xbd, 
	0x77, 0xe5, 0x02, 0xbe, 0xce, 0xa1, 0x5c, 0xbb, 0x32, 0x81, 0x21, 0xbe, 
	0x50, 0x2b, 0xed, 0x3d, 0x37, 0x68, 0xcd, 0xbb, 0x6b, 0xe4, 0x71, 0xbe, 
	0xa7, 0xc3, 0x6c, 0x3e, 0x60, 0xfd, 0x2c, 0xbe, 0xd9, 0x63, 0x92, 0x3d, 
	0x3b, 0xe5, 0xe4, 0x3d, 0xcf, 0x74, 0x16, 0xbe, 0xd5, 0x49, 0xd2, 0x3d, 
	0xa3, 0xf1, 0xb8, 0x3d, 0xd4, 0xe3, 0x11, 0xbf, 0x6a, 0x80, 0xe3, 0x3d, 
	0x4c, 0x07, 0xfc, 0xbd, 0x07, 0xad, 0x82, 0xbe, 0x6a, 0x7d, 0x9f, 0x3d, 
	0x1d, 0x61, 0xc7, 0x3e, 0x72, 0x2a, 0x8d, 0x3e, 0x68, 0x1b, 0xc8, 0xbe, 
	0xd3, 0xf8, 0xb4, 0xbe, 0xe5, 0x44, 0xb7, 0x3e, 0x76, 0xd0, 0xee, 0xbe, 
	0xf6, 0x75, 0x20, 0xbe, 0x97, 0x9c, 0x58, 0x3e, 0x3c, 0x71, 0x74, 0x3c, 
	0x5e, 0x43, 0x12, 0xbe, 0xe3, 0x6e, 0x1e, 0x3e, 0xbf, 0x5d, 0x96, 0xbe, 
	0x52, 0x15, 0xe0, 0x3d, 0x7b, 0xae, 0x74, 0x3e, 0x5e, 0xc4, 0x39, 0xbe, 
	0xc6, 0x9b, 0x41, 0x3e, 0xcb, 0x72, 0x71, 0x3d, 0x79, 0xfe, 0xe2, 0xbd, 
	0xdd, 0xda, 0x41, 0xbe, 0x13, 0xa3, 0x51, 0x3d, 0xe9, 0x70, 0xd8, 0xbc, 
	0x4f, 0x84, 0x58, 0xbe, 0x7c, 0x16, 0xec, 0xbd, 0xac, 0x01, 0x44, 0x3d, 
	0x52, 0xb8, 0x20, 0x3e, 0x1a, 0xdc, 0xf6, 0xbd, 0xdc, 0xc0, 0x1f, 0x3d, 
	0x34, 0x90, 0xf4, 0xbe, 0xf6, 0xe5, 0x05, 0x3e, 0xdd, 0x55, 0x24, 0xbe, 
	0xae, 0x7c, 0x0b, 0xbf, 0x4a, 0x1c, 0x90, 0x3e, 0x3f, 0x93, 0xc2, 0x3c, 
	0xac, 0x6b, 0x0c, 0xbc, 0x6d, 0xf2, 0xf9, 0x3d, 0xb4, 0xfe, 0x3f, 0xbe, 
	0xed, 0x09, 0xe7, 0x3d, 0x5c, 0x2b, 0x94, 0xbe, 0xd4, 0x9b, 0x57, 0xbf, 
	0xc7, 0xbb, 0x88, 0x3e, 0x1d, 0xb8, 0x52, 0xbe, 0x9d, 0x62, 0x77, 0xbe, 
	0x95, 0x34, 0x05, 0xbe, 0xa7, 0x4f, 0x6d, 0x3e, 0xe0, 0xf0, 0xac, 0xbe, 
	0xf3, 0xa5, 0x93, 0xbe, 0x67, 0x4c, 0xcc, 0xbe, 0x05, 0x08, 0x7c, 0x3d, 
	0x53, 0x67, 0x56, 0x3e, 0x8a, 0x72, 0x83, 0xbe, 0x4b, 0x6b, 0x34, 0xbd, 
	0x1d, 0xc5, 0xc7, 0xbe, 0x52, 0x29, 0x34, 0x3e, 0x0c, 0x86, 0x9c, 0xbd, 
	0xd9, 0xb0, 0xe5, 0xbe, 0x36, 0xf8, 0x26, 0x3e, 0x59, 0x69, 0xc7, 0xbc, 
	0x4d, 0xd9, 0x18, 0xbf, 0xa2, 0x8c, 0x93, 0x3d, 0xce, 0x4f, 0xc6, 0x3c, 
	0xdb, 0x4d, 0xf1, 0xbc, 0xb7, 0xf0, 0x61, 0xbf, 0x57, 0xbf, 0x7c, 0xbe, 
	0x7a, 0x6c, 0x3c, 0x3d, 0xc8, 0x8e, 0x37, 0x3d, 0xff, 0x8c, 0xa8, 0xbe, 
	0x79, 0x5c, 0x02, 0xbe, 0xe9, 0x5a, 0x03, 0x3e, 0xc5, 0xd0, 0x90, 0x3e, 
	0x9d, 0xbd, 0x93, 0xbf, 0xf9, 0xff, 0x9b, 0xbe, 0xca, 0x5a, 0x18, 0xbe, 
	0x7a, 0xac, 0xa5, 0x3e, 0x3f, 0xd2, 0x0c, 0x3b, 0xc3, 0x38, 0x3b, 0x3e, 
	0x73, 0x12, 0xd1, 0xbe, 0x33, 0x78, 0x29, 0xbd, 0x10, 0xac, 0xbc, 0xbe, 
	0x07, 0xc5, 0x53, 0xbf, 0xdc, 0x9b, 0x06, 0xbd, 0xf3, 0xa0, 0x7b, 0x3e, 
	0xee, 0xdc, 0x41, 0xbe, 0x14, 0x54, 0x36, 0x3e, 0xf9, 0x5e, 0xb6, 0xbc, 
	0x18, 0xdc, 0x26, 0xbe, 0x21, 0x90, 0xe3, 0xbe, 0x5d, 0x79, 0xe2, 0xbe, 
	0xdd, 0xd5, 0x5f, 0x3d, 0xea, 0x98, 0x58, 0xbe, 0x9d, 0xf7, 0xf7, 0xbe, 
	0x3c, 0x56, 0x86, 0xbe, 0xb4, 0xef, 0x36, 0x3e, 0xc5, 0x80, 0x4f, 0xbe, 
	0x9b, 0xce, 0xc4, 0xbe, 0x9a, 0x6b, 0xf3, 0x3d, 0x22, 0xf5, 0x71, 0xbe, 
	0x42, 0x53, 0x8e, 0x3e, 0x67, 0x5b, 0x8e, 0xbe, 0x24, 0x8c, 0xa0, 0xbe, 
	0xea, 0x47, 0xde, 0x3d, 0x00, 0x17, 0x96, 0x3d, 0xa0, 0xe6, 0x8a, 0xbf, 
	0x72, 0xac, 0x79, 0x3d, 0xcf, 0x65, 0x43, 0xbe, 0x71, 0x6b, 0x37, 0x3e, 
	0xee, 0x38, 0x19, 0x3e, 0x5e, 0x7f, 0x8f, 0x3e, 0x2c, 0x0a, 0x55, 0xbe, 
	0x4d, 0xd2, 0x4e, 0x3e, 0x45, 0x49, 0xce, 0xbe, 0x6e, 0x44, 0x66, 0xbe, 
	0x88, 0xf6, 0xe8, 0xbb, 0x37, 0x11, 0x45, 0xbb, 0xc1, 0x42, 0x3a, 0x3d, 
	0x83, 0x70, 0xaf, 0xbb, 0xb8, 0x4a, 0xd7, 0xbd, 0xed, 0xe2, 0x00, 0x3c, 
	0x97, 0x67, 0xa5, 0xbe, 0x8b, 0x79, 0x3c, 0xbe, 0x70, 0x9a, 0x5c, 0x3e, 
	0x6b, 0xbe, 0xb7, 0xbd, 0x62, 0x06, 0x90, 0xbe, 0x8c, 0xdd, 0x4d, 0xbe, 
	0xf9, 0x68, 0xc2, 0xbe, 0x88, 0xcb, 0x73, 0x3e, 0x8c, 0x40, 0xa6, 0xbe, 
	0x4d, 0x0f, 0x71, 0xbe, 0xe9, 0x04, 0x82, 0x3e, 0x8b, 0x29, 0x8f, 0x3b, 
	0xe0, 0x56, 0x92, 0xbe, 0x21, 0x1f, 0xc7, 0x3d, 0xf7, 0xdc, 0xa3, 0xbe, 
	0x32, 0xe4, 0x3b, 0x3e, 0xa0, 0xad, 0xc0, 0xbe, 0xf4, 0x82, 0x3d, 0xbf, 
	0x22, 0x82, 0x54, 0x3e, 0xef, 0xb6, 0x6f, 0x3e, 0x28, 0x28, 0x9e, 0xbe, 
	0x2d, 0x43, 0xd1, 0x3e, 0x18, 0x35, 0x6f, 0xbe, 0x1d, 0x8a, 0xb9, 0xbd, 
	0x07, 0x58, 0xd8, 0xbe, 0x9e, 0x85, 0x4e, 0xbf, 0x01, 0xa2, 0x3a, 0x3e, 
	0x6e, 0x3a, 0xed, 0x3e, 0x13, 0x7a, 0xd3, 0x3d, 0x39, 0x65, 0x28, 0xbf, 
	0xec, 0x3e, 0x4e, 0x3e, 0x23, 0xa3, 0x35, 0x3c, 0x71, 0x74, 0x02, 0xbf, 
	0xe6, 0x06, 0x1f, 0x3c, 0x40, 0x05, 0xb8, 0xbc, 0x92, 0xea, 0xcd, 0x3c, 
	0x28, 0xca, 0xa1, 0x3c, 0x9e, 0x3d, 0xc8, 0xbd, 0xae, 0x2c, 0x01, 0xbe, 
	0xe4, 0x28, 0xff, 0xba, 0x2e, 0x20, 0x9b, 0x3e, 0xe1, 0x80, 0xec, 0xbd, 
	0xa8, 0x5d, 0x63, 0x3e, 0xa1, 0x2a, 0x0f, 0xbd, 0xd4, 0x33, 0xec, 0x3d, 
	0x3d, 0x21, 0x0a, 0x3e, 0x39, 0xba, 0xda, 0xbe, 0x99, 0x1a, 0xac, 0xbc, 
	0x58, 0xee, 0x56, 0x3e, 0x05, 0xbf, 0x84, 0xbe, 0x55, 0x76, 0x88, 0x3d, 
	0x1f, 0xb7, 0x4d, 0xbe, 0x67, 0x15, 0x9e, 0x3c, 0x14, 0x8f, 0xde, 0x3c, 
	0x5d, 0x52, 0x9c, 0xbe, 0x01, 0xb8, 0x1d, 0xbe, 0x39, 0xad, 0x62, 0xbe, 
	0xb3, 0x8b, 0xaf, 0xbd, 0x6b, 0x40, 0xc6, 0x3d, 0xbd, 0x54, 0x8d, 0xbe, 
	0xaf, 0x9e, 0xd3, 0xbd, 0x77, 0x2a, 0xe9, 0x3d, 0xc7, 0x29, 0xd3, 0xbd, 
	0x82, 0xcf, 0xa6, 0x3c, 0xa5, 0x8f, 0xe1, 0xbd, 0x96, 0x1b, 0x42, 0xbe, 
	0xe4, 0x8f, 0xf6, 0xbd, 0xa4, 0x3c, 0x23, 0xbe, 0xc8, 0x3a, 0x71, 0xbe, 
	0x58, 0xea, 0xa4, 0xbd, 0x8e, 0x45, 0xac, 0x3e, 0xf7, 0x46, 0x74, 0xbd, 
	0xe6, 0x0a, 0xb7, 0xbd, 0xea, 0xb5, 0xd7, 0xbd, 0x1d, 0x97, 0x80, 0xbe, 
	0xc3, 0x4b, 0x44, 0x3e, 0x68, 0x18, 0x05, 0x3d, 0x78, 0xab, 0x5d, 0xbf, 
	0x21, 0x36, 0xfa, 0x3d, 0x1e, 0x1a, 0xb7, 0x3c, 0xa7, 0x17, 0xe4, 0xbe, 
	0x72, 0x13, 0xd4, 0x3d, 0x7c, 0x18, 0x89, 0x3e, 0x5c, 0xde, 0x51, 0x3d, 
	0x8f, 0x07, 0xb8, 0x3c, 0xa0, 0x1a, 0xe8, 0xbd, 0x62, 0x82, 0xfa, 0xbe, 
	0x79, 0x5f, 0x17, 0x3e, 0x8c, 0x1b, 0x92, 0x3c, 0x91, 0x8b, 0xbf, 0xbe, 
	0xa9, 0xb1, 0x31, 0x3d, 0xb3, 0x02, 0x01, 0x3e, 0xa7, 0x91, 0xa2, 0x3d, 
	0x9e, 0x4b, 0x8c, 0x3d, 0x61, 0x4f, 0x79, 0xbe, 0x61, 0x32, 0xaf, 0x3d, 
	0xcb, 0x7b, 0x4c, 0x3e, 0xe7, 0x74, 0xeb, 0xbe, 0x3d, 0x93, 0x72, 0x3e, 
	0x88, 0x9f, 0x04, 0xbe, 0x62, 0x52, 0x13, 0xbd, 0x49, 0xd0, 0x23, 0x3c, 
	0xa7, 0xff, 0x98, 0xbe, 0x58, 0xc4, 0xb3, 0xbe, 0xc8, 0xc6, 0x08, 0x3e, 
	0x41, 0x38, 0xc7, 0xbd, 0x83, 0xdb, 0x08, 0xbc, 0x38, 0x62, 0x14, 0x3e, 
	0x01, 0x0b, 0xbb, 0xbd, 0xfb, 0x7f, 0x0b, 0xbe, 0x4b, 0x7f, 0xa8, 0xbe, 
	0x59, 0x36, 0xcb, 0xbe, 0xc1, 0x56, 0xb2, 0x3e, 0x89, 0xa8, 0xa7, 0x3e, 
	0x95, 0xb0, 0xf4, 0xbd, 0x8c, 0x48, 0x21, 0xbc, 0x3a, 0xdc, 0x52, 0xbd, 
	0xf2, 0xd8, 0xbb, 0xbe, 0x92, 0x08, 0x3d, 0x3e, 0x10, 0xcf, 0x1b, 0xbe, 
	0x9b, 0x91, 0x7e, 0x3e, 0x7c, 0x30, 0x9f, 0x3e, 0xff, 0x47, 0x23, 0xbe, 
	0x7e, 0x8c, 0xe9, 0xbe, 0x3c, 0x52, 0xa7, 0xbe, 0xd2, 0x0e, 0x89, 0xbe, 
	0x81, 0xe5, 0x98, 0xbe, 0x40, 0xf4, 0x81, 0x3e, 0x5d, 0x8a, 0xa4, 0xbe, 
	0xa8, 0x01, 0x81, 0xbe, 0x49, 0x41, 0x83, 0x3e, 0x78, 0xc6, 0x5f, 0x3c, 
	0xea, 0xb0, 0x9d, 0xbd, 0x4b, 0xd8, 0x69, 0x3e, 0x97, 0x44, 0x88, 0xbe, 
	0xa6, 0xc1, 0x98, 0x3b, 0xa5, 0xf7, 0x03, 0x3e, 0x3c, 0x1b, 0x9c, 0xbe, 
	0x27, 0x68, 0xd1, 0x3c, 0x27, 0x65, 0x8a, 0x3d, 0xd3, 0xe1, 0x76, 0xbd, 
	0xdf, 0x06, 0xc6, 0x3d, 0x3b, 0x7e, 0x89, 0xbd, 0x9a, 0xb9, 0xde, 0x3c, 
	0x04, 0x6d, 0xd4, 0x3d, 0x02, 0x56, 0x33, 0xbd, 0xb3, 0x9c, 0x82, 0x3d, 
	0x94, 0x3a, 0x1a, 0xbd, 0xb0, 0x66, 0xb4, 0x3d, 0xc6, 0x0d, 0x2d, 0xbd, 
	0x85, 0x51, 0x67, 0x3d, 0xe4, 0x79, 0x3b, 0xbb, 0xb5, 0x2e, 0xf0, 0x3c, 
	0x8d, 0xb6, 0x9f, 0xbc, 0xee, 0x10, 0x1d, 0xbe, 0x52, 0x56, 0x64, 0xbd, 
	0xf7, 0xe0, 0xc0, 0xbd, 0x36, 0x34, 0x6a, 0x3d, 0xf0, 0xef, 0x19, 0xbc, 
	0x92, 0xe5, 0xa2, 0x3d, 0xd2, 0x00, 0x9c, 0x3d, 0x6f, 0xa8, 0x13, 0x3e, 
	0xa7, 0x49, 0xb7, 0x3d, 0xde, 0xc9, 0x42, 0x3e, 0xfd, 0xed, 0x49, 0x3e, 
	0x7c, 0x79, 0x3a, 0x3d, 0x86, 0x6b, 0x5c, 0xbd, 0xa5, 0x21, 0x31, 0x3e, 
	0xe4, 0x58, 0x5b, 0x3e, 0x8f, 0x27, 0xa9, 0xbd, 0x6a, 0xdd, 0x87, 0x3c, 
	0xdf, 0xb1, 0xb0, 0xbc, 0x31, 0x5f, 0x02, 0xbd, 0x46, 0x84, 0x41, 0x3d, 
	0xb2, 0xb0, 0x1f, 0xbe, 0xa4, 0xaa, 0x2c, 0xbe, 0x6e, 0x05, 0x1c, 0xbd, 
	0x82, 0xca, 0x42, 0xbe, 0x80, 0x7d, 0x72, 0xbe, 0x89, 0x97, 0xe5, 0xbd, 
	0x32, 0x7a, 0x76, 0xbe, 0x89, 0x8c, 0xdd, 0xbd, 0x8d, 0x95, 0x3f, 0x3b, 
	0xea, 0x7a, 0xab, 0xbd, 0x4d, 0x86, 0x15, 0x3e, 0xc6, 0xfc, 0xcf, 0xbd, 
	0x74, 0x14, 0x3c, 0xbe, 0xc6, 0xf6, 0x07, 0xbd, 0xd8, 0xf5, 0xda, 0xbd, 
	0x05, 0xc1, 0x45, 0xbd, 0x07, 0x3a, 0x2e, 0x3e, 0x96, 0xe8, 0x05, 0xbe, 
	0xf5, 0x51, 0x38, 0xbd, 0xe4, 0xd3, 0x67, 0x3e, 0x69, 0x1f, 0x5d, 0xbe, 
	0x84, 0xf5, 0x96, 0xbc, 0xf2, 0x6a, 0x57, 0xbe, 0x27, 0xf2, 0xd3, 0xbe, 
	0xb8, 0xc7, 0x82, 0x3d, 0x14, 0xc1, 0x8f, 0xbd, 0xb5, 0x15, 0x8b, 0xbc, 
	0xfa, 0x44, 0x0b, 0x3e, 0x8a, 0xa5, 0x1f, 0xbe, 0x44, 0xaa, 0xf0, 0x3c, 
	0x3e, 0xc8, 0x9e, 0x3b, 0xdc, 0xfa, 0x06, 0xbe, 0xa0, 0x55, 0xae, 0x3c, 
	0xbd, 0xff, 0x10, 0x3e, 0x14, 0x01, 0xce, 0x3d, 0xc9, 0x80, 0xb6, 0xbd, 
	0x28, 0x61, 0x2d, 0x3d, 0x92, 0x6f, 0x93, 0x3d, 0x87, 0xcf, 0xfe, 0xbc, 
	0x7a, 0x1d, 0x87, 0xbd, 0x54, 0x68, 0xfa, 0xbe, 0x23, 0x7d, 0x35, 0x3e, 
	0x03, 0xa3, 0xbe, 0xbd, 0x05, 0xc7, 0xa0, 0xbe, 0xb5, 0x7c, 0xc6, 0xbb, 
	0x03, 0xaa, 0xa0, 0x3e, 0x33, 0xdb, 0xde, 0x3e, 0xe3, 0x1a, 0xbf, 0x3e, 
	0xe5, 0xe5, 0xc6, 0x3d, 0x0a, 0x88, 0xa3, 0xbe, 0xca, 0xcf, 0x9e, 0xbc, 
	0x05, 0x5d, 0x6a, 0x3e, 0xb1, 0xef, 0xce, 0xbe, 0x50, 0xd0, 0x8f, 0x3d, 
	0x54, 0x8d, 0xd7, 0x3d, 0x07, 0x07, 0xc5, 0x3d, 0x03, 0x32, 0x02, 0x3e, 
	0xad, 0x22, 0x2d, 0xbe, 0xa8, 0xd0, 0x50, 0x3e, 0x75, 0x09, 0x78, 0x3e, 
	0x5d, 0x71, 0x1f, 0xbf, 0x67, 0xce, 0x1e, 0xbd, 0xee, 0x71, 0xd6, 0x3d, 
	0xe9, 0xbd, 0xca, 0xbe, 0x27, 0x75, 0x3b, 0xbd, 0xfd, 0x33, 0x41, 0x3e, 
	0x35, 0x4c, 0x2a, 0x3e, 0xb0, 0x5b, 0xbc, 0xbd, 0xfd, 0x72, 0xb1, 0x3c, 
	0x3b, 0x4a, 0xd1, 0xbe, 0x55, 0xff, 0x6a, 0xbd, 0x20, 0x2c, 0xb7, 0xbd, 
	0x35, 0x13, 0x7b, 0xbe, 0xc3, 0x1d, 0x35, 0x3d, 0xb2, 0x4a, 0xdb, 0xbd, 
	0xc1, 0x0a, 0x90, 0x3c, 0xf6, 0x56, 0x0c, 0x3e, 0xab, 0x7d, 0x67, 0xbe, 
	0x47, 0x57, 0x19, 0xbe, 0x72, 0x0a, 0x87, 0x3d, 0xd8, 0x08, 0x79, 0xbe, 
	0x7d, 0xcf, 0x34, 0x3d, 0x67, 0x7b, 0x8a, 0xbe, 0x9d, 0x93, 0x03, 0xbe, 
	0x2c, 0x15, 0xa5, 0x3d, 0x7e, 0xcf, 0x29, 0xbe, 0x72, 0xa6, 0xec, 0xbe, 
	0x8b, 0x7a, 0x27, 0xbe, 0x69, 0xcd, 0xb0, 0x3e, 0xb0, 0xe2, 0x21, 0xbe, 
	0x53, 0x56, 0xc0, 0xbe, 0xe5, 0x08, 0xea, 0xbe, 0x04, 0x66, 0x34, 0xbe, 
	0xac, 0x05, 0xa5, 0xbb, 0x48, 0xe8, 0x17, 0x3e, 0x57, 0x51, 0xa9, 0x3e, 
	0x72, 0x55, 0x54, 0x3d, 0x4c, 0x41, 0xf5, 0xbe, 0x08, 0x57, 0xaf, 0x3c, 
	0x6c, 0xf0, 0x9e, 0x3c, 0xc6, 0x3e, 0x4c, 0xbf, 0xa7, 0x45, 0x6b, 0x3b, 
	0x5b, 0x6a, 0x2e, 0xbe, 0xaf, 0x4f, 0x5d, 0xbf, 0x54, 0xeb, 0xd8, 0x3d, 
	0x5d, 0xdc, 0x5d, 0x3c, 0x79, 0x11, 0xa3, 0xbd, 0x43, 0x39, 0xc3, 0x3d, 
	0x95, 0xb3, 0x8a, 0xbe, 0x78, 0x5d, 0x17, 0xbe, 0x44, 0x0a, 0xed, 0x3d, 
	0x5c, 0x27, 0xe2, 0xbd, 0x7e, 0x0b, 0x90, 0xbe, 0xa4, 0x74, 0xdd, 0xbd, 
	0xfa, 0x33, 0x16, 0x3e, 0x35, 0x39, 0x3a, 0xbe, 0x97, 0xdc, 0x86, 0xbc, 
	0x10, 0x61, 0x75, 0xbe, 0x1c, 0x9f, 0x91, 0xbd, 0x1f, 0x50, 0x97, 0x3d, 
	0x62, 0xda, 0x63, 0xbd, 0x3f, 0x8d, 0x39, 0xbd, 0x43, 0xf8, 0x5a, 0xbd, 
	0x90, 0x4d, 0x8b, 0xbe, 0x22, 0x08, 0x2c, 0x3e, 0x52, 0xfe, 0x99, 0xbe, 
	0xce, 0xec, 0x0b, 0xbe, 0xc7, 0x5d, 0xa2, 0xbd, 0x03, 0x8c, 0x38, 0x3d, 
	0x99, 0x08, 0x24, 0xbe, 0xf3, 0x93, 0xd2, 0xbe, 0xc7, 0x59, 0xbd, 0x3d, 
	0xb9, 0xa0, 0x8f, 0xbd, 0xf7, 0x39, 0x9a, 0xbd, 0x3a, 0xc2, 0x2a, 0xbe, 
	0x4c, 0xd5, 0x9d, 0xbe, 0xc9, 0xb9, 0x7f, 0x3d, 0x98, 0x1c, 0x11, 0xbf, 
	0x95, 0x11, 0x0f, 0xbd, 0x0a, 0x54, 0x96, 0x3d, 0x8b, 0xbc, 0x2b, 0xbe, 
	0x08, 0x87, 0xde, 0xbc, 0xb6, 0x7f, 0x84, 0xbc, 0x4d, 0x07, 0x96, 0xbe, 
	0x16, 0x3d, 0x34, 0x3e, 0xd5, 0x9f, 0x4c, 0xbe, 0x08, 0x78, 0xdc, 0x3d, 
	0x21, 0x62, 0x4a, 0x3d, 0x0e, 0x71, 0x16, 0xbf, 0x11, 0xbf, 0x9c, 0xbd, 
	0xe6, 0x86, 0x70, 0xbc, 0x30, 0x61, 0xfb, 0xbe, 0xa2, 0x58, 0xd6, 0x3d, 
	0xa6, 0xf2, 0x7a, 0xbd, 0x35, 0x43, 0x61, 0x3e, 0x46, 0x8c, 0x19, 0x3e, 
	0x0e, 0xcf, 0xfa, 0xbd, 0x71, 0xdd, 0x53, 0xbb, 0x2c, 0x7e, 0x15, 0x3e, 
	0x5a, 0x12, 0x09, 0x3e, 0x68, 0xe3, 0xfb, 0xbe, 0x1c, 0xb2, 0x36, 0x3d, 
	0x70, 0x5b, 0xe6, 0x3e, 0x01, 0xd9, 0x06, 0xbf, 0x62, 0x28, 0x56, 0x3d, 
	0x92, 0x09, 0x54, 0xbe, 0x39, 0xcb, 0x69, 0xbe, 0x7d, 0x7d, 0xec, 0xbb, 
	0xdf, 0x33, 0xe7, 0x3d, 0xba, 0x06, 0xfc, 0xbd, 0x9f, 0x13, 0x86, 0xbc, 
	0x63, 0xa6, 0x91, 0x3d, 0x47, 0xb9, 0x1e, 0x3d, 0x92, 0xf0, 0xb1, 0xbe, 
	0xfe, 0x5c, 0xa4, 0xbd, 0xad, 0xa6, 0x26, 0xbe, 0x38, 0x63, 0x2a, 0x3d, 
	0x5f, 0x04, 0xf9, 0xbc, 0x8d, 0x16, 0x2c, 0xbe, 0x74, 0x0a, 0x2b, 0x3e, 
	0x40, 0x74, 0x98, 0xbe, 0x40, 0x65, 0x22, 0xbd, 0xbf, 0x9d, 0x58, 0xbe, 
	0x8c, 0x56, 0x09, 0x3d, 0x34, 0x62, 0x90, 0x3e, 0x56, 0x9c, 0xd1, 0xbd, 
	0xa6, 0x06, 0xd8, 0xbd, 0x6e, 0x77, 0x2c, 0x3d, 0xd8, 0x91, 0x88, 0xbe, 
	0x8e, 0x69, 0x3b, 0x3e, 0x79, 0x1e, 0x77, 0xbc, 0x86, 0x9d, 0xd9, 0xbe, 
	0xc3, 0xa0, 0xed, 0x3d, 0xff, 0xf4, 0x02, 0x3e, 0x56, 0xe7, 0xf0, 0xbe, 
	0x3c, 0x7d, 0x99, 0x3e, 0x96, 0x36, 0x92, 0xbe, 0xc2, 0xc3, 0xc6, 0x3c, 
	0xd0, 0x71, 0xb5, 0x3c, 0x22, 0x58, 0x05, 0xbe, 0x27, 0x5c, 0xa2, 0xbd, 
	0x64, 0x2f, 0x2d, 0xbc, 0x91, 0xdb, 0x33, 0xbd, 0x80, 0x1d, 0x36, 0x3c, 
	0x15, 0xb5, 0x2b, 0xbc, 0xd1, 0x72, 0x05, 0x3e, 0xf3, 0x25, 0x72, 0x3b, 
	0x1b, 0xa5, 0xeb, 0x3d, 0x2a, 0x83, 0x11, 0xbf, 0x10, 0x25, 0x7a, 0xbe, 
	0x03, 0xb7, 0x3c, 0x3e, 0xe5, 0x74, 0x18, 0xbf, 0xdf, 0xf1, 0x8b, 0x3d, 
	0xe5, 0x11, 0xe2, 0xbe, 0x50, 0x09, 0x98, 0xbd, 0x7d, 0x7e, 0x5c, 0xbc, 
	0xe3, 0xeb, 0xc5, 0xbc, 0x67, 0x69, 0xba, 0xbe, 0xe8, 0xa3, 0xf4, 0x3d, 
	0x85, 0x5d, 0xcd, 0x3d, 0x8f, 0xa1, 0xc6, 0xbd, 0xfa, 0x66, 0xa8, 0xbe, 
	0x2b, 0x5a, 0x9c, 0xbd, 0x00, 0x9c, 0xe9, 0xbe, 0x34, 0x7e, 0x17, 0xbe, 
	0x04, 0x82, 0x56, 0xbe, 0x67, 0x57, 0x16, 0x3e, 0xa2, 0x01, 0x7f, 0xbc, 
	0x7a, 0x3a, 0xaf, 0xbe, 0x0b, 0xb7, 0x39, 0xbe, 0x8a, 0x52, 0xc2, 0x3d, 
	0x98, 0x3f, 0xf1, 0xbb, 0x6e, 0x4f, 0xdf, 0x3c, 0xd1, 0x39, 0xd0, 0x3d, 
	0x6b, 0x0f, 0x60, 0x3e, 0x91, 0x2f, 0x94, 0x3e, 0x8b, 0x9c, 0x83, 0xbe, 
	0x28, 0xfb, 0x39, 0xbe, 0x1a, 0x3a, 0x14, 0x3c, 0x75, 0x0c, 0x04, 0x3d, 
	0xb8, 0xff, 0x31, 0x3e, 0x4f, 0xef, 0xfb, 0xbb, 0x92, 0xba, 0x10, 0xbf, 
	0xf4, 0x67, 0x80, 0x3e, 0x81, 0xee, 0x4e, 0xbe, 0x6d, 0x9a, 0x56, 0x3d, 
	0xe6, 0xed, 0xe3, 0x3c, 0xed, 0x28, 0xf5, 0xbd, 0x94, 0x1b, 0x13, 0xbe, 
	0x05, 0xcf, 0x72, 0x3c, 0x96, 0x8e, 0xa3, 0xbe, 0xba, 0xcc, 0x06, 0xbe, 
	0x22, 0x68, 0x28, 0x3e, 0xd2, 0x5e, 0x00, 0x3e, 0x77, 0xf1, 0x03, 0x3e, 
	0xe1, 0x5e, 0x58, 0x3d, 0xd6, 0xe4, 0x0b, 0xbf, 0xc0, 0xb7, 0xde, 0xbd, 
	0xd6, 0x83, 0xe2, 0x3c, 0x37, 0x27, 0x41, 0xbe, 0x8d, 0x68, 0x3e, 0x3b, 
	0x7e, 0x31, 0x4a, 0xbe, 0xc2, 0xf6, 0xcd, 0xbc, 0x54, 0x55, 0x2d, 0x3c, 
	0x90, 0x71, 0x57, 0xbe, 0x21, 0xac, 0x70, 0xbe, 0x2c, 0x4d, 0xdc, 0x3d, 
	0xa5, 0xf7, 0x7b, 0xbd, 0x1f, 0xc8, 0xb0, 0x3d, 0xce, 0x81, 0x18, 0xbe, 
	0x5f, 0xcf, 0x38, 0x3d, 0xe7, 0xb1, 0x4e, 0xbe, 0x3b, 0x76, 0x60, 0xbe, 
	0xeb, 0x3e, 0x0c, 0xbe, 0x77, 0x74, 0xd5, 0x3d, 0x87, 0x51, 0xae, 0x3d, 
	0x09, 0x79, 0x43, 0xbe, 0x9a, 0x35, 0x0a, 0xbd, 0x95, 0xf6, 0x0a, 0x3e, 
	0xb7, 0xc7, 0x33, 0xbe, 0x42, 0xbe, 0xed, 0xbe, 0xf6, 0xa4, 0x91, 0xbd, 
	0xf6, 0x5e, 0x55, 0x3e, 0x6b, 0xa2, 0x01, 0xbe, 0x75, 0xb2, 0xbc, 0xbd, 
	0xa9, 0x4b, 0x02, 0xbf, 0xd1, 0x28, 0xb7, 0xbe, 0xe5, 0xa1, 0x11, 0xbf, 
	0xf5, 0x99, 0x4f, 0x3e, 0xbf, 0x03, 0xc1, 0x3d, 0x78, 0x83, 0x87, 0xbf, 
	0x04, 0x43, 0x3f, 0x3c, 0x3e, 0x93, 0x8f, 0x3c, 0xfa, 0xc7, 0x62, 0x3e, 
	0xe3, 0xf7, 0x88, 0x3e, 0xca, 0x35, 0x6f, 0xbd, 0xa6, 0x62, 0xdc, 0x3c, 
	0x36, 0xef, 0x04, 0x3e, 0xb1, 0x69, 0x0d, 0xbf, 0x36, 0xfc, 0x69, 0xbe, 
	0xa4, 0x08, 0x3a, 0x3e, 0x75, 0xd9, 0x45, 0x3e, 0x06, 0x7d, 0x28, 0x3e, 
	0x34, 0x24, 0x39, 0x3d, 0xf4, 0x3b, 0xc4, 0xbe, 0x1d, 0x1e, 0x08, 0xbd, 
	0x06, 0x57, 0x13, 0xbe, 0x4a, 0xf8, 0x02, 0xbf, 0xd6, 0xc9, 0x76, 0x3e, 
	0xfe, 0x7b, 0xa4, 0xbe, 0x46, 0xb9, 0x19, 0x3d, 0xaf, 0x76, 0x61, 0x3e, 
	0xf0, 0x5a, 0xe5, 0xbd, 0x19, 0x95, 0x52, 0xbc, 0x2f, 0x9e, 0x2b, 0xbe, 
	0xd2, 0x0b, 0x84, 0x3c, 0x96, 0xf9, 0xae, 0x3c, 0x05, 0x8f, 0x60, 0xbd, 
	0x0a, 0x1f, 0x1d, 0x3e, 0x3b, 0xd6, 0x72, 0xbe, 0x0c, 0x3f, 0xe3, 0xbd, 
	0x92, 0x9a, 0x99, 0x3b, 0x63, 0xa5, 0x24, 0xbb, 0xbc, 0xbf, 0x30, 0xbd, 
	0x69, 0xbf, 0x91, 0xbb, 0x3c, 0x1c, 0x40, 0x3e, 0x68, 0x47, 0x88, 0x3e, 
	0xa9, 0x19, 0x00, 0x3e, 0x33, 0x27, 0x77, 0xbf, 0x93, 0xed, 0xb7, 0x3d, 
	0x79, 0xa3, 0x90, 0x3e, 0x5c, 0x48, 0x98, 0xbe, 0xd3, 0xa0, 0x55, 0xbc, 
	0x2e, 0xe0, 0x27, 0xbe, 0x01, 0x62, 0x1a, 0xbf, 0x8c, 0x57, 0x91, 0xbf, 
	0x12, 0x8e, 0x95, 0x3d, 0x62, 0xa0, 0x0e, 0x3e, 0x3b, 0x97, 0x5b, 0xbf, 
	0xb3, 0x17, 0x06, 0xbe, 0xcf, 0xe4, 0x77, 0x3d, 0x86, 0xc8, 0x4f, 0xbd, 
	0x3b, 0x07, 0x34, 0xbd, 0x5c, 0x92, 0x87, 0x3d, 0xde, 0x57, 0x85, 0xbe, 
	0x60, 0x5e, 0xce, 0x3d, 0x60, 0x83, 0x36, 0xbf, 0xee, 0xf5, 0xa9, 0xbe, 
	0x45, 0x89, 0x08, 0x3e, 0x78, 0x39, 0x60, 0xbc, 0xe2, 0x00, 0x94, 0x3d, 
	0x44, 0x6c, 0x4e, 0x3e, 0x2d, 0x9d, 0x64, 0xbc, 0x85, 0x21, 0x0c, 0xbe, 
	0x68, 0x75, 0x84, 0xbe, 0x9a, 0xd1, 0x9d, 0xbe, 0xcf, 0x56, 0xed, 0x3d, 
	0x6a, 0xa4, 0x8b, 0x3d, 0xff, 0x1a, 0x3d, 0xbc, 0x1e, 0xc8, 0xf5, 0xbd, 
	0x5d, 0x44, 0xcb, 0x3e, 0x3a, 0xec, 0x01, 0xbe, 0xe5, 0x93, 0x68, 0xbe, 
	0x1c, 0x90, 0x98, 0x3a, 0x34, 0xec, 0x40, 0xbc, 0x65, 0x0f, 0x81, 0x3d, 
	0x22, 0x5d, 0x4e, 0x3e, 0xdd, 0xca, 0x8b, 0xbe, 0x3b, 0x14, 0x43, 0x3e, 
	0xe4, 0xe9, 0x11, 0x3e, 0x9d, 0xf6, 0x0b, 0xbd, 0x1f, 0x50, 0x54, 0xbc, 
	0x14, 0x5d, 0xce, 0x3d, 0x19, 0x1a, 0x18, 0x3e, 0x30, 0xca, 0x32, 0x3e, 
	0x98, 0x63, 0x8a, 0x3e, 0x86, 0x22, 0x35, 0xbf, 0x04, 0xc6, 0x65, 0x3d, 
	0x68, 0x43, 0x00, 0x3e, 0x71, 0xef, 0xe0, 0xbe, 0x60, 0xc1, 0x1c, 0x3e, 
	0x2d, 0xdc, 0x11, 0xbd, 0x28, 0x74, 0xca, 0xbe, 0x96, 0xd0, 0xad, 0xbe, 
	0x4b, 0xc2, 0x89, 0xbd, 0x0a, 0x6c, 0xa6, 0x3d, 0x5d, 0x26, 0xe9, 0xbe, 
	0x3e, 0x4e, 0x4e, 0xbd, 0xc2, 0x19, 0xa3, 0x3e, 0xb8, 0x48, 0xe8, 0xbd, 
	0x60, 0xa5, 0x8b, 0xbe, 0x1c, 0xd9, 0xdf, 0xbe, 0xac, 0x58, 0x3d, 0xbe, 
	0x6c, 0x6f, 0x1a, 0x3c, 0xa0, 0x7b, 0x5b, 0xbe, 0x8c, 0xea, 0x39, 0xbe, 
	0x7c, 0x0f, 0xf7, 0x3c, 0xf9, 0xbb, 0x33, 0x3e, 0xd5, 0xcc, 0x8d, 0xbd, 
	0x59, 0xcc, 0xec, 0xbc, 0xd2, 0x4c, 0xb8, 0x3d, 0xe8, 0xf9, 0xe9, 0x3d, 
	0x7e, 0x30, 0x29, 0xbe, 0xdb, 0x73, 0x34, 0xbe, 0x6d, 0x5d, 0xad, 0x3c, 
	0xcf, 0xaf, 0x69, 0x3e, 0x38, 0xb8, 0xcb, 0xbc, 0x69, 0x8b, 0x7d, 0x3d, 
	0x80, 0x80, 0x49, 0xbe, 0xe4, 0x22, 0x05, 0x3e, 0x0b, 0x81, 0x61, 0xbe, 
	0xca, 0xf7, 0x3b, 0xbe, 0x57, 0xff, 0x4b, 0x3e, 0xef, 0x05, 0x7b, 0x3d, 
	0x15, 0x2f, 0x23, 0xbd, 0xf0, 0xfe, 0x16, 0x3e, 0xbc, 0x47, 0x70, 0x3b, 
	0x6c, 0x15, 0x72, 0x3d, 0xc2, 0xac, 0x27, 0x3d, 0xc7, 0xe5, 0xa0, 0x3d, 
	0xd7, 0x82, 0x53, 0x3d, 0xf4, 0x7f, 0x69, 0x3e, 0x1b, 0x35, 0x5b, 0x3d, 
	0x26, 0xc3, 0x49, 0x3d, 0x16, 0x46, 0xf2, 0x3e, 0x49, 0xdf, 0x8a, 0x3e, 
	0xb9, 0xd3, 0x66, 0xbe, 0xd8, 0x8f, 0x9a, 0x3d, 0xe1, 0xa3, 0xe9, 0x3d, 
	0x71, 0xe3, 0xc6, 0x3e, 0xc4, 0x50, 0x80, 0xbe, 0x27, 0xf8, 0xd0, 0x3e, 
	0x27, 0xdf, 0xcd, 0xbd, 0x23, 0xd1, 0x41, 0xbe, 0x33, 0xa4, 0xb8, 0xbe, 
	0xbb, 0x0d, 0xc6, 0x3c, 0x39, 0xe1, 0x95, 0xbe, 0x05, 0xee, 0x90, 0xbd, 
	0x18, 0x2f, 0x14, 0xbe, 0xa2, 0xc9, 0x2c, 0xbe, 0xe1, 0xc5, 0x99, 0x3d, 
	0x9b, 0xb6, 0x7d, 0x3d, 0x2d, 0x03, 0x25, 0xbf, 0xa7, 0x90, 0x38, 0xbe, 
	0x28, 0xf8, 0x2c, 0x3c, 0x55, 0x74, 0x04, 0xbe, 0xb5, 0xcd, 0x84, 0xbe, 
	0x16, 0x15, 0x9e, 0xbc, 0xfc, 0xd8, 0x96, 0x3d, 0xc1, 0x30, 0xe4, 0x3d, 
	0x22, 0xaa, 0x0b, 0xbf, 0xa9, 0xab, 0xf0, 0x3d, 0x32, 0x71, 0x34, 0x3c, 
	0xba, 0xab, 0x07, 0x3e, 0x1c, 0x05, 0xc4, 0xbd, 0x08, 0x92, 0x29, 0x3d, 
	0x17, 0x99, 0x86, 0xbd, 0xbe, 0x65, 0x43, 0x3e, 0xcb, 0x11, 0x82, 0xbe, 
	0x4f, 0x20, 0x2d, 0xbe, 0x58, 0x31, 0x23, 0xbd, 0xf8, 0x44, 0x89, 0x3e, 
	0xe9, 0x09, 0xc6, 0x3d, 0xe3, 0x48, 0x52, 0xbd, 0x31, 0x80, 0x85, 0x3e, 
	0x2e, 0x25, 0x4c, 0xbb, 0xc5, 0x95, 0xd6, 0xba, 0x5c, 0x8b, 0xfe, 0x3c, 
	0x08, 0xad, 0x99, 0x3d, 0x15, 0x46, 0x82, 0x3d, 0x62, 0x24, 0x19, 0x3e, 
	0x67, 0xda, 0xc6, 0x3c, 0xf5, 0x3c, 0x06, 0xbf, 0x9d, 0x28, 0xd6, 0x3d, 
	0xaa, 0x74, 0xbe, 0xbd, 0xc7, 0x7f, 0x56, 0x3c, 0xcd, 0x02, 0xae, 0x3d, 
	0xd4, 0x35, 0xe5, 0x3d, 0x37, 0xa4, 0x43, 0x3d, 0xc9, 0xe2, 0x9c, 0x3d, 
	0xef, 0x54, 0x07, 0x3e, 0x9e, 0x9b, 0xd5, 0xbd, 0xf6, 0x12, 0xcc, 0x3a, 
	0xed, 0x9b, 0xb3, 0x3d, 0x29, 0x0e, 0x5a, 0xbe, 0xe8, 0xe8, 0xaa, 0x3c, 
	0xdb, 0x37, 0x36, 0xbd, 0x69, 0x57, 0x74, 0x3c, 0x30, 0x8c, 0x35, 0x3e, 
	0xcd, 0xf9, 0xf2, 0xbd, 0xee, 0x24, 0xfa, 0x3c, 0x46, 0xc6, 0x4f, 0x3d, 
	0xea, 0x99, 0x57, 0xbe, 0x21, 0x59, 0xea, 0xbd, 0xa1, 0xec, 0xe6, 0x3c, 
	0xa2, 0x53, 0x15, 0xbe, 0xa5, 0x87, 0x59, 0x3d, 0xad, 0xc3, 0x35, 0x3c, 
	0x46, 0x13, 0x20, 0xbe, 0xe8, 0x53, 0x10, 0x3c, 0x3c, 0x50, 0x77, 0xbe, 
	0x40, 0xe8, 0x01, 0xbe, 0x73, 0xc6, 0xce, 0xbb, 0xe6, 0xc4, 0x12, 0xbe, 
	0xeb, 0xfa, 0x87, 0x3d, 0x2d, 0xeb, 0x3a, 0xbc, 0xda, 0x03, 0xe5, 0xbe, 
	0x28, 0x9a, 0xd4, 0x3c, 0x64, 0xa1, 0x00, 0xbe, 0xf9, 0x18, 0x06, 0xbd, 
	0x1a, 0xfa, 0xcd, 0x3d, 0xcb, 0x6b, 0x98, 0x3d, 0xeb, 0x1f, 0x2d, 0x3e, 
	0xa5, 0xb9, 0x4f, 0x3e, 0x83, 0x57, 0x2e, 0xbe, 0x0f, 0xb7, 0xa5, 0x3e, 
	0xeb, 0x21, 0xaf, 0xbd, 0x2c, 0x7a, 0xa0, 0x3d, 0xdd, 0x25, 0xde, 0x3d, 
	0x49, 0xbe, 0xfa, 0xbc, 0x7b, 0xa6, 0x73, 0xbe, 0xc5, 0x44, 0xc6, 0x3e, 
	0x48, 0x99, 0xe4, 0x3d, 0x6d, 0x1e, 0xfe, 0xbd, 0x78, 0x34, 0x55, 0x3e, 
	0xb7, 0x06, 0x79, 0x3d, 0x90, 0xf3, 0x0e, 0xbe, 0x08, 0x36, 0x28, 0xbe, 
	0x0d, 0xd0, 0xae, 0x3d, 0xa4, 0x6d, 0xd4, 0x3c, 0x98, 0xa3, 0xb0, 0xbe, 
	0x38, 0x7d, 0x80, 0xbd, 0x34, 0x71, 0x96, 0xbd, 0x8d, 0x9e, 0x2b, 0xbe, 
	0x43, 0xe9, 0xeb, 0x3d, 0xe8, 0x2e, 0xcc, 0x3d, 0x58, 0x04, 0xf5, 0x3d, 
	0xcc, 0x73, 0x30, 0xbd, 0x55, 0x9e, 0xcf, 0xbd, 0x8e, 0xbb, 0xfd, 0xbc, 
	0xa6, 0x00, 0xa9, 0xbd, 0x4e, 0x16, 0xfe, 0x3d, 0xad, 0xf8, 0xc0, 0xbc, 
	0x59, 0x29, 0x29, 0xbe, 0xfb, 0x27, 0x5e, 0x3e, 0xc7, 0x74, 0x12, 0xbe, 
	0xc7, 0x38, 0x09, 0xbe, 0x3f, 0x91, 0xb3, 0x3c, 0xd0, 0x8d, 0xd4, 0xbd, 
	0x83, 0x3a, 0xd1, 0xbd, 0x3a, 0x81, 0x33, 0x3c, 0x12, 0x12, 0x76, 0xbe, 
	0x6e, 0xbf, 0xd3, 0x3d, 0xa2, 0x07, 0x3e, 0x3e, 0x84, 0xad, 0x4b, 0xbe, 
	0xd6, 0x4b, 0x44, 0x3e, 0x60, 0xf0, 0x9b, 0xbd, 0x70, 0x81, 0x51, 0xbd, 
	0xb9, 0x97, 0xd2, 0xbb, 0x88, 0x96, 0x32, 0x3d, 0xb5, 0x33, 0x72, 0x3e, 
	0x75, 0xea, 0x03, 0x3e, 0x86, 0x64, 0xf2, 0x3c, 0xff, 0xb9, 0x67, 0xbe, 
	0x9a, 0xec, 0x28, 0x3e, 0xe6, 0x95, 0x84, 0xbd, 0x90, 0xaa, 0x97, 0x3e, 
	0xb7, 0xaf, 0x7c, 0x3e, 0x0b, 0xde, 0xce, 0xbe, 0x12, 0x7c, 0xd9, 0x3d, 
	0xdc, 0xa6, 0xe5, 0x3d, 0x4a, 0x27, 0xb7, 0xbe, 0x1f, 0x2f, 0x55, 0x3e, 
	0x74, 0x0d, 0x0a, 0x3e, 0xc2, 0xce, 0x08, 0xbf, 0xfc, 0x5a, 0x41, 0xbe, 
	0xb1, 0xf1, 0x42, 0xbe, 0x03, 0x8c, 0x29, 0xbe, 0x6d, 0x9c, 0x13, 0xbd, 
	0xb5, 0xda, 0x15, 0xbe, 0x30, 0x08, 0x44, 0xbc, 0x06, 0xac, 0x50, 0xbe, 
	0x29, 0xc3, 0xed, 0xbb, 0xf7, 0x3d, 0x01, 0x3e, 0x49, 0x95, 0x5e, 0x3e, 
	0x4e, 0xc4, 0x81, 0xbd, 0x9d, 0xb9, 0x97, 0xbe, 0x49, 0x58, 0x93, 0x3e, 
	0xd4, 0x74, 0x28, 0xbe, 0x44, 0xd2, 0x69, 0x3d, 0x6b, 0xfa, 0x53, 0xbe, 
	0x15, 0x4e, 0x17, 0xbf, 0x56, 0xb3, 0x55, 0x3c, 0x86, 0x4e, 0x62, 0x3c, 
	0xe3, 0xeb, 0xa9, 0xbe, 0xd3, 0x5f, 0x16, 0xbe, 0x8a, 0xab, 0x49, 0x3d, 
	0x7d, 0x11, 0x8a, 0x3b, 0x66, 0x0e, 0x55, 0xbe, 0x19, 0xe0, 0x79, 0xbd, 
	0x4f, 0x82, 0xda, 0xbe, 0xc8, 0xb8, 0xc6, 0x3d, 0xa6, 0x8e, 0x7b, 0xbd, 
	0x4f, 0x15, 0xb1, 0xbe, 0x63, 0x4f, 0x91, 0x3e, 0x26, 0xf9, 0x54, 0xbe, 
	0xb4, 0x88, 0x59, 0xbe, 0x1e, 0xc0, 0x0f, 0x3d, 0xcd, 0x5a, 0x42, 0xbe, 
	0x99, 0xdd, 0xd6, 0x3c, 0x54, 0x58, 0xae, 0xbe, 0x63, 0x2e, 0xa7, 0xbe, 
	0xa6, 0xf3, 0x5b, 0xbc, 0x6a, 0xdf, 0x83, 0x3e, 0xdc, 0x65, 0x85, 0xbe, 
	0x04, 0x66, 0xbb, 0x3c, 0x5b, 0xa1, 0x87, 0x3e, 0x37, 0x8a, 0x8e, 0xbe, 
	0x5b, 0x5e, 0xce, 0xbe, 0xd5, 0x56, 0xbf, 0xbe, 0x4d, 0xba, 0x8e, 0xbd, 
	0x97, 0x9f, 0xf2, 0x3e, 0x1a, 0xcf, 0xed, 0x3d, 0xd5, 0x03, 0x89, 0x3e, 
	0xb1, 0x2b, 0xa2, 0x3d, 0x8b, 0x56, 0x90, 0xbe, 0x2d, 0x33, 0x68, 0x3e, 
	0x1f, 0xf1, 0xcc, 0x3d, 0xf9, 0x05, 0xd9, 0xbe, 0x54, 0x4e, 0x98, 0x3d, 
	0xd1, 0x9e, 0x9a, 0xbe, 0x95, 0xb9, 0x92, 0xbe, 0x29, 0xf9, 0x32, 0x3e, 
	0xce, 0x99, 0x3f, 0xbd, 0xcf, 0xd7, 0xf2, 0xbe, 0x35, 0x54, 0x0b, 0xbc, 
	0xb2, 0xc5, 0x6e, 0xbe, 0xb8, 0xb2, 0x52, 0x3b, 0x34, 0xdb, 0x23, 0xbd, 
	0x9f, 0x2c, 0x19, 0x3e, 0x99, 0xa0, 0x8e, 0xbd, 0xe9, 0x91, 0x29, 0x3e, 
	0xb0, 0xeb, 0x64, 0xbe, 0xee, 0xd0, 0x54, 0xbe, 0xf9, 0xec, 0xa1, 0x3b, 
	0x0b, 0xf7, 0x03, 0xbe, 0x73, 0xfb, 0x21, 0xbe, 0xb3, 0x21, 0x04, 0x3e, 
	0xdd, 0xb7, 0xe3, 0xbe, 0xbf, 0x90, 0x2a, 0xbe, 0xff, 0xb7, 0x24, 0xbe, 
	0xb0, 0xd7, 0x64, 0xbf, 0x2b, 0x66, 0xea, 0xbc, 0x32, 0xf1, 0x4d, 0xbe, 
	0x04, 0x0f, 0xe4, 0xbe, 0x5a, 0x42, 0x3a, 0x3d, 0x27, 0x9d, 0x9f, 0x3e, 
	0x07, 0x84, 0x1d, 0xbe, 0x1e, 0x6c, 0xf6, 0xbe, 0x4e, 0xf8, 0x9a, 0xbe, 
	0x07, 0xff, 0x92, 0xbe, 0x6e, 0xd0, 0xa7, 0x3a, 0x61, 0xbc, 0x1d, 0xbf, 
	0xbc, 0x0c, 0x99, 0xbe, 0x52, 0xed, 0xee, 0x3e, 0x3c, 0x93, 0x86, 0xbe, 
	0x49, 0x39, 0x08, 0xbf, 0xbd, 0x86, 0xe6, 0x3c, 0xd1, 0x1f, 0xe8, 0xbe, 
	0x2f, 0xe4, 0xe8, 0x3e, 0xa0, 0x3b, 0xf7, 0x3d, 0x7c, 0xc0, 0x5d, 0xbe, 
	0xae, 0x52, 0xc6, 0x3d, 0x7f, 0x8c, 0x72, 0xbc, 0xef, 0xaf, 0x0d, 0x3e, 
	0x23, 0xaa, 0xce, 0xba, 0x32, 0xe2, 0x0d, 0xbe, 0x02, 0x76, 0x16, 0x3d, 
	0x32, 0xbb, 0x98, 0x3b, 0x98, 0x10, 0xe2, 0xbe, 0x33, 0x44, 0x98, 0xbd, 
	0xa2, 0x5c, 0x0c, 0xbe, 0x1c, 0x68, 0x85, 0x3e, 0x93, 0x87, 0x2f, 0x3e, 
	0xbc, 0x94, 0x22, 0xbd, 0x3e, 0x2c, 0x37, 0x3d, 0x8c, 0xce, 0x0d, 0xbe, 
	0xbe, 0xee, 0x86, 0xbd, 0xa4, 0xd6, 0x59, 0xbe, 0x94, 0x39, 0x74, 0x3d, 
	0x11, 0x57, 0x75, 0x3d, 0xaa, 0x06, 0x12, 0xbe, 0x9e, 0x01, 0xc0, 0xbd, 
	0x8f, 0xae, 0x8e, 0xbd, 0xb3, 0x4a, 0x3c, 0x3e, 0xb3, 0x8a, 0xc3, 0xbc, 
	0x36, 0x16, 0x0d, 0x3c, 0xf9, 0xb3, 0x1a, 0x3d, 0x32, 0x4b, 0xcf, 0x3c, 
	0xd3, 0x71, 0x14, 0xbe, 0xf4, 0xc7, 0x1d, 0xbe, 0x28, 0xd9, 0x58, 0x3c, 
	0xe1, 0x4d, 0x91, 0x3d, 0x9c, 0xab, 0xfc, 0xbd, 0x58, 0x2f, 0x28, 0x3e, 
	0x72, 0x81, 0x76, 0xbe, 0xd2, 0x86, 0x1e, 0xbd, 0xb7, 0x51, 0xe3, 0x3d, 
	0xb3, 0x54, 0xc9, 0xbd, 0x6e, 0xd3, 0xfe, 0xbb, 0x63, 0xba, 0xad, 0x3d, 
	0x94, 0xc9, 0x86, 0x3d, 0xd6, 0x48, 0xe1, 0xbe, 0xfd, 0x36, 0x6d, 0xbe, 
	0xa3, 0x79, 0x87, 0x3e, 0x9c, 0xf3, 0x89, 0x3e, 0xdf, 0x5e, 0x11, 0x3d, 
	0x89, 0x4f, 0x3d, 0xbf, 0xa5, 0x20, 0x3a, 0xbe, 0x88, 0xf4, 0xd8, 0xbe, 
	0xc3, 0x8f, 0x6a, 0x3d, 0x75, 0xca, 0x11, 0x3e, 0x21, 0x9a, 0x94, 0x3c, 
	0xc6, 0x95, 0x09, 0x3d, 0x57, 0xab, 0x98, 0xbc, 0xe5, 0x85, 0xb2, 0xbd, 
	0x13, 0x9a, 0x1d, 0x3d, 0x73, 0x54, 0x30, 0x3d, 0xf0, 0x55, 0x2c, 0x3e, 
	0x7c, 0x13, 0x8a, 0x3d, 0x7d, 0x09, 0xee, 0x3c, 0xcd, 0xae, 0xdb, 0x3c, 
	0xd1, 0x9a, 0x63, 0xbe, 0x24, 0x8c, 0x34, 0x3e, 0xc2, 0x89, 0xc7, 0xbc, 
	0x67, 0x43, 0xd3, 0x3d, 0x6f, 0x15, 0x0a, 0xbe, 0x1b, 0x81, 0x1f, 0xbe, 
	0x9d, 0x6e, 0x1a, 0xbd, 0x47, 0x50, 0x88, 0xbe, 0x4d, 0x44, 0xfc, 0xbd, 
	0x08, 0x55, 0x8d, 0x3d, 0x2a, 0xdc, 0x39, 0xbe, 0x0e, 0x80, 0x96, 0xbc, 
	0x75, 0xae, 0xa9, 0xbd, 0xfc, 0xe8, 0x50, 0x3d, 0x93, 0xf5, 0xcc, 0x3c, 
	0x4a, 0x6b, 0xc8, 0x3c, 0x32, 0xb5, 0x18, 0x3e, 0x10, 0xce, 0xc9, 0xbd, 
	0x88, 0xd8, 0x94, 0x3d, 0x70, 0x77, 0x3e, 0xbe, 0xef, 0x2a, 0x21, 0xbf, 
	0x79, 0x0b, 0xce, 0x3d, 0xa5, 0x13, 0xd3, 0xbd, 0xd7, 0x0d, 0xa5, 0xbe, 
	0xcc, 0x63, 0xc6, 0xbc, 0x3d, 0xec, 0x35, 0x3e, 0x3d, 0x92, 0xb3, 0xbd, 
	0x39, 0xd6, 0x8f, 0x3d, 0x6b, 0x3e, 0xe7, 0xbe, 0xe9, 0x42, 0xc8, 0xbc, 
	0xf3, 0x52, 0xb6, 0x3d, 0xd5, 0x2e, 0x51, 0xbe, 0xe1, 0xfe, 0x1f, 0x3e, 
	0xe3, 0x45, 0xd1, 0xbd, 0x0f, 0xc5, 0xc8, 0xbe, 0xa1, 0x52, 0x11, 0x3e, 
	0x88, 0x7e, 0xe1, 0xbc, 0x1e, 0xd0, 0x3e, 0x3c, 0x77, 0x5d, 0xc4, 0xbd, 
	0x87, 0x41, 0x14, 0xbe, 0x07, 0x6b, 0x0e, 0x3e, 0x78, 0x9c, 0xca, 0x3d, 
	0x3f, 0x27, 0x2a, 0x3c, 0x9f, 0x5f, 0x0f, 0xbd, 0xd3, 0xf4, 0x21, 0x3e, 
	0x9d, 0xa2, 0xc9, 0xbd, 0x3e, 0x93, 0xe9, 0xbe, 0xcb, 0x0c, 0x88, 0x3e, 
	0xa1, 0x88, 0x2a, 0xbe, 0x66, 0x7d, 0x35, 0x3e, 0x39, 0xf5, 0x16, 0x3e, 
	0x7c, 0x23, 0x40, 0xbd, 0x47, 0x49, 0x0d, 0xbe, 0x0a, 0x38, 0xcb, 0xbd, 
	0x45, 0xb6, 0x23, 0xbd, 0xe9, 0xb4, 0x04, 0xbe, 0x3b, 0xf1, 0xea, 0x3d, 
	0x1c, 0x2e, 0xd4, 0x3c, 0xf0, 0xc2, 0x37, 0xbd, 0x99, 0x14, 0x13, 0x3d, 
	0xab, 0x91, 0x83, 0xbe, 0xbc, 0x65, 0x9a, 0xbd, 0x1b, 0xc6, 0x8a, 0x3b, 
	0x3b, 0x53, 0x5d, 0xbe, 0x13, 0xd8, 0xdf, 0x3d, 0x37, 0x36, 0x8d, 0xbe, 
	0xce, 0xef, 0x63, 0xbd, 0x09, 0x38, 0x1a, 0x3e, 0xfe, 0x05, 0x98, 0xbb, 
	0xd8, 0xb1, 0x00, 0x3d, 0x94, 0xca, 0x8c, 0xbe, 0x89, 0xf7, 0x67, 0xbf, 
	0x87, 0x8a, 0xe9, 0xbc, 0x60, 0x62, 0x20, 0xbe, 0x77, 0x7e, 0xe1, 0xbe, 
	0x91, 0xc8, 0x46, 0x3e, 0x8e, 0x44, 0x01, 0x3e, 0x4a, 0xbf, 0x8b, 0xbe, 
	0x0f, 0x20, 0xe3, 0xbe, 0xe1, 0x09, 0xc1, 0xbe, 0x31, 0x37, 0x4f, 0x3c, 
	0xb4, 0x6b, 0xe5, 0x3e, 0x1b, 0xf9, 0x6f, 0x3d, 0x12, 0xb5, 0x90, 0x3e, 
	0xe7, 0xa6, 0xea, 0x3d, 0xd9, 0x44, 0x80, 0xbe, 0x6b, 0x95, 0x1a, 0xbd, 
	0x37, 0xff, 0x68, 0x3d, 0x27, 0x11, 0x7d, 0xbe, 0x11, 0x87, 0x8f, 0xbc, 
	0x3d, 0xd2, 0x90, 0xbe, 0x50, 0xef, 0x54, 0xbe, 0x1d, 0x3e, 0x98, 0x3e, 
	0xe1, 0x84, 0xb9, 0x3c, 0xab, 0x15, 0x13, 0xbf, 0x5f, 0x64, 0x96, 0x3d, 
	0xaf, 0x55, 0x1f, 0xbe, 0xf1, 0xf4, 0xae, 0xbd, 0xbc, 0x77, 0x80, 0x3e, 
	0xd5, 0xc5, 0xac, 0xbd, 0x17, 0xae, 0xa9, 0xbe, 0x4b, 0x0f, 0x29, 0x3d, 
	0x4a, 0x27, 0x83, 0xbe, 0xde, 0x49, 0x1a, 0xbd, 0xdf, 0xbc, 0x0e, 0x3e, 
	0x48, 0xfc, 0x16, 0x3e, 0xee, 0xcd, 0x00, 0x3d, 0x2c, 0x66, 0x42, 0x3e, 
	0x79, 0x94, 0x8b, 0xbe, 0xb5, 0xa3, 0x4c, 0xbd, 0x93, 0x5c, 0x49, 0xbe, 
	0xfd, 0x2b, 0xcb, 0xbd, 0xc1, 0xdb, 0xbf, 0xbd, 0x83, 0x1e, 0x9a, 0x3d, 
	0x95, 0x71, 0xd8, 0xbb, 0xd2, 0x43, 0x3d, 0x3e, 0xd0, 0x4c, 0x66, 0xbc, 
	0xdf, 0x54, 0x6e, 0xbe, 0xe4, 0xd0, 0x1e, 0x3c, 0xf4, 0xb7, 0x1c, 0x3d, 
	0x45, 0xf4, 0xc4, 0x3b, 0x2b, 0xd0, 0x05, 0xbf, 0x13, 0x43, 0x55, 0xbd, 
	0xdf, 0x4a, 0xcd, 0x3d, 0x8d, 0x14, 0x2a, 0x3e, 0x14, 0x02, 0x8b, 0x3e, 
	0x9b, 0x12, 0x75, 0xbd, 0x65, 0xa3, 0x08, 0x3e, 0x4b, 0x17, 0x62, 0xbe, 
	0x16, 0x54, 0xac, 0xbc, 0xe3, 0x4b, 0x92, 0xbd, 0xda, 0x1e, 0x91, 0xbe, 
	0x2b, 0x20, 0x2a, 0x3c, 0x6f, 0x9d, 0xda, 0xbd, 0x22, 0x5d, 0x34, 0xbe, 
	0x2a, 0x7b, 0x43, 0x3d, 0xd5, 0x72, 0xd3, 0xbe, 0xaf, 0xf3, 0x96, 0x3d, 
	0xc6, 0x02, 0x75, 0xbe, 0x12, 0xe4, 0x07, 0xbf, 0x9d, 0x8b, 0x32, 0xbd, 
	0x41, 0x25, 0x22, 0x3e, 0x97, 0x23, 0x48, 0xbf, 0x13, 0xcf, 0x21, 0x3c, 
	0xe8, 0x9e, 0xc6, 0xbd, 0x29, 0x37, 0x20, 0xbc, 0xd9, 0xdd, 0x9e, 0x3c, 
	0xb7, 0xe4, 0x25, 0x3e, 0x9b, 0xf0, 0xe2, 0xbe, 0x01, 0x4e, 0x69, 0x3e, 
	0x4c, 0x46, 0xb2, 0xbe, 0x18, 0xa1, 0xb9, 0xbe, 0x43, 0xb2, 0x7f, 0x3d, 
	0x2a, 0x32, 0xa3, 0xbd, 0x23, 0xd2, 0x80, 0x3d, 0x83, 0xdb, 0x9e, 0xbd, 
	0x49, 0x83, 0x0a, 0xbe, 0xa8, 0x8a, 0xb1, 0xbd, 0x93, 0x8c, 0x90, 0xbe, 
	0x8b, 0x1f, 0x7a, 0xbe, 0x1a, 0xa0, 0xc8, 0x3c, 0x0c, 0x82, 0xb3, 0x3e, 
	0x5e, 0xa7, 0xf2, 0xbb, 0xda, 0x42, 0xa0, 0xbd, 0xc1, 0x37, 0xc5, 0xbd, 
	0x09, 0x5e, 0xd1, 0xbd, 0xc7, 0x12, 0x33, 0x3e, 0xf2, 0x7c, 0x1c, 0xbe, 
	0x49, 0xed, 0x18, 0xbe, 0x66, 0x39, 0x73, 0x3e, 0x1e, 0x63, 0xa2, 0x3d, 
	0x98, 0x01, 0x1f, 0xbe, 0x2e, 0x46, 0x5b, 0xbe, 0xd6, 0xa6, 0x52, 0xbe, 
	0xcc, 0x8f, 0xbf, 0x3e, 0xa0, 0xf6, 0x24, 0x3d, 0x71, 0x6b, 0xba, 0xb9, 
	0x95, 0x9e, 0xf9, 0xbe, 0xaf, 0xdc, 0x2c, 0xbf, 0x9d, 0xb7, 0x53, 0xbf, 
	0x87, 0xe2, 0x98, 0x3c, 0x3e, 0x97, 0xa1, 0x3d, 0xb9, 0x9c, 0x93, 0xbe, 
	0xf1, 0x3b, 0x86, 0x3d, 0x27, 0x6e, 0x0d, 0x3e, 0xf1, 0xa8, 0xd0, 0xbd, 
	0x54, 0xe5, 0xe6, 0x3c, 0x4f, 0xc5, 0x82, 0x3e, 0x1e, 0x0d, 0x69, 0xbd, 
	0xa5, 0xcc, 0x0f, 0xbe, 0xe7, 0x71, 0x80, 0xbf, 0x5a, 0xec, 0xce, 0xbc, 
	0xae, 0x8d, 0x8e, 0x3d, 0x67, 0x0e, 0x03, 0x3e, 0x07, 0xaa, 0xb5, 0xbd, 
	0x99, 0x82, 0x19, 0x3e, 0xb8, 0x8c, 0x0d, 0x3e, 0xf6, 0xb9, 0x55, 0xbe, 
	0x50, 0x30, 0xe1, 0xbe, 0xbe, 0xf5, 0x1a, 0xbd, 0x09, 0x11, 0x2a, 0xbe, 
	0xcb, 0xca, 0x1c, 0x3d, 0xb5, 0xbc, 0x91, 0x3d, 0xc2, 0x15, 0x7e, 0xbe, 
	0xd6, 0x51, 0x48, 0x3e, 0x2a, 0x50, 0x76, 0x3e, 0xb6, 0xc4, 0xc1, 0xbe, 
	0x9f, 0xe5, 0x94, 0x3c, 0x99, 0x85, 0x3f, 0xbe, 0x65, 0xb5, 0x26, 0xbe, 
	0x10, 0x98, 0xba, 0x3d, 0xf3, 0xaa, 0xe8, 0x3d, 0x73, 0x9a, 0xdc, 0xbe, 
	0x4e, 0xe7, 0x9c, 0x3e, 0x4f, 0x6d, 0x04, 0xbd, 0x0d, 0x80, 0xee, 0xbe, 
	0x42, 0x66, 0x9f, 0x3d, 0x39, 0xb3, 0x51, 0x3e, 0x42, 0xe7, 0x6d, 0xbd, 
	0x32, 0x13, 0xb7, 0x3c, 0x27, 0xfe, 0x12, 0xbf, 0x9c, 0xd1, 0xd9, 0xbd, 
	0xb9, 0x17, 0x0c, 0x3c, 0x58, 0xc1, 0xb4, 0xbe, 0x26, 0xd8, 0x3a, 0x3e, 
	0xbe, 0xce, 0x40, 0xbe, 0x4d, 0x1e, 0x9b, 0x3e, 0x66, 0xe2, 0x03, 0x3e, 
	0x85, 0xde, 0x03, 0xbd, 0xd6, 0xf9, 0x92, 0xbd, 0x3b, 0x12, 0xd3, 0xbd, 
	0x70, 0x82, 0xf0, 0x3d, 0xe9, 0x07, 0xa6, 0xbd, 0x70, 0x08, 0x2e, 0x3d, 
	0x2c, 0xd5, 0xc7, 0x3d, 0xdd, 0xdb, 0xb4, 0xbe, 0x83, 0xc8, 0x2b, 0xbd, 
	0x9a, 0x3e, 0x4d, 0x3c, 0xda, 0xe0, 0x63, 0x3b, 0xa9, 0x03, 0x2e, 0xbd, 
	0xef, 0xa9, 0xe8, 0x3d, 0xc9, 0xc0, 0x2b, 0xbe, 0xb6, 0x66, 0xc3, 0x3d, 
	0x64, 0xfe, 0x74, 0x3c, 0x35, 0x1a, 0xdb, 0xbe, 0x16, 0x47, 0x21, 0xbb, 
	0x33, 0x2a, 0xaf, 0x3d, 0x7c, 0x0e, 0x07, 0xbe, 0x50, 0x67, 0x0f, 0x3d, 
	0x2c, 0x3b, 0x3f, 0xbe, 0x94, 0x1e, 0x66, 0x3b, 0xce, 0x77, 0x93, 0x3d, 
	0x67, 0x2d, 0x14, 0x3e, 0xe7, 0x4f, 0x86, 0xbe, 0x93, 0x7f, 0x0f, 0x3d, 
	0xd8, 0xa2, 0x04, 0x3d, 0x8b, 0x1c, 0x1a, 0xbe, 0x03, 0xbb, 0x22, 0x3d, 
	0x78, 0x33, 0x32, 0x3e, 0x4c, 0xcf, 0xbd, 0xbe, 0xf6, 0xaf, 0x8b, 0xbc, 
	0xe9, 0x12, 0x7e, 0x3c, 0xf6, 0xb2, 0x8e, 0x3d, 0x40, 0x98, 0x08, 0x3e, 
	0x38, 0x96, 0x02, 0xbe, 0xc8, 0xb5, 0x58, 0x3d, 0xf3, 0xaf, 0x65, 0x3e, 
	0x61, 0x9c, 0xae, 0x3d, 0x14, 0xa3, 0x3b, 0xbf, 0x26, 0x8c, 0x5a, 0x3e, 
	0x17, 0x99, 0x7b, 0x3e, 0xfe, 0x93, 0xe0, 0x3d, 0x6a, 0x7a, 0xe8, 0x3d, 
	0xb0, 0x42, 0xf6, 0xbc, 0x22, 0x1b, 0x8a, 0x3d, 0x73, 0x38, 0x89, 0xbd, 
	0xbc, 0xa3, 0x1e, 0x3d, 0x15, 0x92, 0x0c, 0x3e, 0xc2, 0xec, 0x8c, 0xbe, 
	0x19, 0xde, 0x8a, 0x3d, 0x64, 0xaa, 0xf6, 0x3a, 0x0a, 0x7a, 0x4f, 0x3e, 
	0x35, 0x98, 0xf4, 0x3d, 0x26, 0x15, 0x5d, 0x3e, 0x47, 0xcf, 0xf1, 0x3d, 
	0xd8, 0x2f, 0x81, 0xbd, 0xe0, 0x3f, 0x00, 0x3e, 0x77, 0x4e, 0x4a, 0x3d, 
	0x25, 0x8b, 0xf0, 0xbc, 0x70, 0x04, 0x87, 0x3e, 0x62, 0xa4, 0x42, 0x3e, 
	0xab, 0x22, 0xed, 0x3d, 0xe7, 0x99, 0x84, 0xbc, 0x6e, 0xa3, 0x09, 0xbe, 
	0xe7, 0x38, 0xa1, 0xbd, 0x64, 0x36, 0xef, 0xbd, 0x9e, 0x69, 0xc3, 0x3c, 
	0xa2, 0x5c, 0xde, 0xbb, 0x8f, 0x42, 0x90, 0x3d, 0x8d, 0x6d, 0x4b, 0xbe, 
	0x25, 0x13, 0x24, 0x3e, 0x8f, 0xa7, 0xf3, 0x3d, 0xb3, 0x5d, 0x46, 0xbe, 
	0x11, 0x01, 0x99, 0x3e, 0x04, 0xa3, 0x17, 0x3d, 0xc0, 0xcc, 0x08, 0x3e, 
	0x2c, 0x04, 0x84, 0x3e, 0x9d, 0x6b, 0x38, 0xbe, 0x55, 0x84, 0xae, 0xbe, 
	0x4b, 0xc8, 0x7b, 0x3e, 0xb2, 0xab, 0xad, 0x3d, 0x50, 0x8c, 0xd3, 0xbd, 
	0x8e, 0x34, 0x01, 0x3e, 0x39, 0x0a, 0x65, 0x3d, 0xae, 0x5e, 0x91, 0x3e, 
	0x9b, 0x89, 0x7d, 0x3e, 0x57, 0x77, 0x3d, 0xbf, 0xeb, 0x39, 0xf0, 0xbb, 
	0x75, 0x55, 0x76, 0x3e, 0xc7, 0xe3, 0xe5, 0xbe, 0xae, 0xb2, 0xe6, 0x3c, 
	0x09, 0x9f, 0x5f, 0xbe, 0x6e, 0x61, 0xdb, 0xbd, 0x53, 0x2c, 0x28, 0xbe, 
	0x21, 0xa5, 0xe4, 0x3d, 0x98, 0x31, 0x3c, 0x3c, 0xdb, 0x5b, 0x27, 0xbf, 
	0x04, 0xc9, 0xe1, 0xbd, 0x2f, 0x0e, 0xae, 0x3d, 0x7f, 0x57, 0x80, 0x3d, 
	0x75, 0xed, 0x11, 0x3d, 0x23, 0x8f, 0x44, 0xbd, 0x6f, 0xb3, 0xd7, 0xbc, 
	0xc6, 0xd7, 0x42, 0xbd, 0xbd, 0x46, 0x9c, 0xbe, 0x81, 0xa7, 0x79, 0x3c, 
	0x37, 0x11, 0x01, 0x3c, 0x57, 0x2d, 0x24, 0x3e, 0x05, 0xbc, 0xa6, 0xbd, 
	0x10, 0xb5, 0x0b, 0xbe, 0x6e, 0x25, 0x0c, 0xbe, 0xc4, 0x9a, 0x2d, 0x3e, 
	0xbe, 0xcd, 0x12, 0x3c, 0x72, 0x9d, 0x92, 0xbe, 0x7f, 0x23, 0x72, 0x3e, 
	0x8c, 0xc1, 0x07, 0x3b, 0xf2, 0xfb, 0xbb, 0xbd, 0x2e, 0x11, 0xce, 0xbd, 
	0x94, 0x7e, 0x88, 0xbe, 0x61, 0xfa, 0x91, 0x3e, 0x55, 0xc4, 0x2a, 0xbe, 
	0x01, 0x6a, 0x15, 0x3c, 0xb3, 0x20, 0xb6, 0x3e, 0xcc, 0x6c, 0x53, 0x3e, 
	0x43, 0x63, 0xba, 0xbc, 0x86, 0x13, 0xdc, 0x3c, 0x7a, 0xab, 0x48, 0xbf, 
	0x42, 0x95, 0xca, 0x3d, 0x67, 0xf6, 0xc2, 0xbe, 0xbb, 0xcc, 0x5b, 0xbf, 
	0x1f, 0x79, 0x31, 0x3d, 0xa7, 0x23, 0x2b, 0x3d, 0xf9, 0x0d, 0x67, 0xbe, 
	0xdd, 0x29, 0x87, 0x3e, 0x4d, 0xe2, 0xed, 0xbd, 0xb7, 0x2d, 0x44, 0xbe, 
	0x28, 0xd8, 0xbf, 0xbd, 0xc6, 0xf2, 0x33, 0xbf, 0x97, 0x91, 0xc7, 0x3c, 
	0x42, 0xcb, 0x74, 0xbe, 0x3f, 0x63, 0xea, 0xbe, 0x3c, 0xa7, 0x22, 0xbf, 
	0x18, 0xa8, 0xed, 0xbd, 0xbd, 0xed, 0x0f, 0xbd, 0xa8, 0xe6, 0x0d, 0x3e, 
	0x5c, 0x40, 0xb3, 0xbe, 0x0a, 0x7a, 0x23, 0x3d, 0xab, 0xf2, 0x9a, 0xbe, 
	0xca, 0x41, 0x1a, 0xbf, 0xde, 0x99, 0xb8, 0xbe, 0x90, 0x4f, 0x6c, 0xbc, 
	0x3c, 0x46, 0x6d, 0x3e, 0xb7, 0xaf, 0x87, 0xbe, 0xea, 0x3c, 0x86, 0xbe, 
	0x00, 0xf7, 0x10, 0x3d, 0x99, 0xfc, 0x56, 0x3e, 0xf8, 0xa3, 0xf8, 0xbe, 
	0x81, 0xdf, 0xf1, 0xbd, 0xd0, 0x63, 0x1e, 0xbe, 0xae, 0x84, 0x0e, 0x3e, 
	0xea, 0x97, 0x67, 0xbf, 0xb0, 0x5d, 0x2a, 0xbf, 0xf5, 0x79, 0xc3, 0x3d, 
	0x87, 0x1a, 0x2b, 0x3e, 0x4f, 0x39, 0x86, 0xbe, 0x6a, 0x88, 0x82, 0x3d, 
	0x98, 0xf2, 0xd2, 0xbd, 0x89, 0xed, 0xf3, 0x3c, 0x1e, 0x1a, 0x48, 0xbf, 
	0x6c, 0xb7, 0xa1, 0xbe, 0xa3, 0x3c, 0x2f, 0xbd, 0x79, 0xb9, 0x33, 0x39, 
	0x64, 0xbe, 0x04, 0xbe, 0x65, 0xfd, 0xa7, 0x3d, 0x9c, 0x27, 0x06, 0xbe, 
	0xb4, 0x5e, 0xa3, 0x3c, 0xe7, 0x11, 0x3c, 0xbf, 0x12, 0x1d, 0x39, 0xbf, 
	0x25, 0xaa, 0x10, 0xbd, 0x0b, 0xb8, 0x4e, 0x3e, 0x10, 0x11, 0x5e, 0xbe, 
	0xde, 0xd0, 0x5c, 0x3c, 0x2d, 0xc1, 0x62, 0x3e, 0x49, 0xa2, 0x75, 0xbe, 
	0x8e, 0x56, 0x71, 0xbe, 0x6b, 0xc8, 0xc3, 0xbe, 0x97, 0x5c, 0x1e, 0x3d, 
	0x01, 0x66, 0x5c, 0xbe, 0x59, 0x52, 0xc9, 0xbd, 0xde, 0xd5, 0xd4, 0xbb, 
	0x38, 0x23, 0x90, 0xbd, 0xe6, 0xed, 0x20, 0xbe, 0x85, 0xa8, 0xd9, 0x3d, 
	0x38, 0x29, 0xac, 0xbc, 0x06, 0x79, 0x49, 0xbe, 0xcf, 0x2e, 0x0f, 0xbe, 
	0x8e, 0xc3, 0xbc, 0xbe, 0x76, 0x23, 0xc9, 0xbd, 0xb2, 0x41, 0x87, 0xbd, 
	0x3a, 0xc1, 0xae, 0x3d, 0xe9, 0x53, 0x86, 0xbd, 0x0a, 0xfb, 0x5e, 0xbc, 
	0xa3, 0x6a, 0xf2, 0xbe, 0x1e, 0xc9, 0x81, 0xbe, 0x4e, 0xda, 0x39, 0xbd, 
	0x20, 0xb3, 0x2d, 0x3e, 0x8e, 0x66, 0x0b, 0xbe, 0xfc, 0xb0, 0x14, 0x3d, 
	0xb3, 0x42, 0x3e, 0xbe, 0x87, 0xb9, 0x53, 0xbe, 0x79, 0x75, 0xc1, 0xbe, 
	0x6c, 0x3d, 0xec, 0xbd, 0xe2, 0x42, 0x91, 0xbe, 0xf3, 0x91, 0x1d, 0x3d, 
	0x14, 0x8f, 0x5c, 0x3e, 0x57, 0x55, 0xb1, 0xbd, 0x26, 0xd1, 0x3f, 0x3b, 
	0x6a, 0xb9, 0x3a, 0x3d, 0xc5, 0xdd, 0x86, 0xbe, 0x8d, 0x74, 0x7c, 0x3d, 
	0xe8, 0x83, 0xa8, 0xbd, 0x05, 0x10, 0xf1, 0xbd, 0xc2, 0xfb, 0x45, 0x3d, 
	0xc2, 0x79, 0xca, 0xbd, 0x2a, 0x08, 0x88, 0xbe, 0xb7, 0xd9, 0x10, 0x3d, 
	0xee, 0x06, 0x3e, 0xbe, 0xc6, 0xb2, 0x70, 0xbd, 0x49, 0xdf, 0x80, 0xbd, 
	0x44, 0xcc, 0x12, 0xbe, 0x81, 0xa9, 0x95, 0x3e, 0x31, 0xb7, 0x43, 0xbe, 
	0x36, 0x56, 0x34, 0xbe, 0xcc, 0xca, 0x2d, 0x3e, 0x40, 0x8a, 0x0b, 0xbe, 
	0x79, 0x13, 0x85, 0xbe, 0xce, 0x2a, 0xbf, 0x3d, 0x99, 0xef, 0x71, 0x3e, 
	0x26, 0xb6, 0x69, 0xbe, 0x98, 0xe0, 0x48, 0xbe, 0xb1, 0xea, 0xa5, 0x3e, 
	0x19, 0xb0, 0xf7, 0x3a, 0xf2, 0xf2, 0xa7, 0xbc, 0x34, 0x6f, 0x3f, 0xbe, 
	0x3a, 0xec, 0xc7, 0x3d, 0xce, 0x76, 0xba, 0xbe, 0xaf, 0xcd, 0xc3, 0x3d, 
	0x5d, 0xeb, 0xa2, 0xbe, 0xa2, 0x83, 0xda, 0x3e, 0x3b, 0x4b, 0x0b, 0x3e, 
	0x47, 0x05, 0x77, 0xbe, 0x0c, 0x29, 0x91, 0xbe, 0x4c, 0xb8, 0x79, 0xbd, 
	0x71, 0xa3, 0xd0, 0xbe, 0xe5, 0x2a, 0xaa, 0xbd, 0xd9, 0x1e, 0x35, 0xbe, 
	0xaa, 0x5b, 0x0b, 0x3e, 0xa6, 0x22, 0xf4, 0x3d, 0x75, 0x15, 0x3d, 0xbe, 
	0x17, 0x53, 0x9c, 0xbe, 0x7b, 0x65, 0x32, 0xbe, 0xbd, 0x59, 0x8e, 0xbe, 
	0x48, 0xe6, 0x1b, 0x3d, 0x92, 0xd0, 0x33, 0xbe, 0xff, 0xe9, 0xa8, 0xbd, 
	0x37, 0x96, 0xa3, 0x3c, 0xb1, 0x87, 0x3e, 0xbe, 0x57, 0x9d, 0xa0, 0xbe, 
	0xe3, 0x19, 0x55, 0x3d, 0x20, 0x2a, 0x63, 0xbe, 0x5f, 0xa8, 0x12, 0x3e, 
	0xa3, 0xd3, 0x9f, 0xbd, 0xf7, 0x46, 0x1f, 0xbe, 0x48, 0x35, 0x4a, 0x3d, 
	0x81, 0x1f, 0x1f, 0xbe, 0xf4, 0xde, 0x3e, 0xbe, 0x71, 0x33, 0x06, 0x3c, 
	0x6f, 0xc8, 0x09, 0xbe, 0x6d, 0x28, 0x52, 0x3e, 0x5d, 0x02, 0x3a, 0x3d, 
	0xd9, 0xbb, 0x91, 0xbd, 0xdf, 0xe1, 0x88, 0x3e, 0xdf, 0x0d, 0x88, 0xbd, 
	0xca, 0x68, 0x01, 0x3e, 0x92, 0xfe, 0xff, 0xff, 0x10, 0x00, 0x00, 0x00, 
	0x05, 0x00, 0x00, 0x00, 0x14, 0x00, 0x00, 0x00, 0x2c, 0x00, 0x00, 0x00, 
	0x02, 0x00, 0x00, 0x00, 0x0a, 0x00, 0x00, 0x00, 0x20, 0x01, 0x00, 0x00, 
	0x17, 0x00, 0x00, 0x00, 0x73, 0x65, 0x71, 0x75, 0x65, 0x6e, 0x74, 0x69, 
	0x61, 0x6c, 0x2f, 0x64, 0x65, 0x6e, 0x73, 0x65, 0x2f, 0x4d, 0x61, 0x74, 
	0x4d, 0x75, 0x6c, 0x00, 0xfc, 0xfd, 0xff, 0xff, 0x06, 0xff, 0xff, 0xff, 
	0x04, 0x00, 0x00, 0x00, 0x08, 0x00, 0x00, 0x00, 0xff, 0xff, 0xff, 0xff, 
	0x20, 0x01, 0x00, 0x00, 0x00, 0x00, 0x0e, 0x00, 0x18, 0x00, 0x08, 0x00, 
	0x07, 0x00, 0x0c, 0x00, 0x10, 0x00, 0x14, 0x00, 0x0e, 0x00, 0x00, 0x00, 
	0x00, 0x00, 0x00, 0x02, 0x10, 0x00, 0x00, 0x00, 0x04, 0x00, 0x00, 0x00, 
	0x10, 0x00, 0x00, 0x00, 0x2c, 0x00, 0x00, 0x00, 0x01, 0x00, 0x00, 0x00, 
	0x02, 0x00, 0x00, 0x00, 0x18, 0x00, 0x00, 0x00, 0x73, 0x65, 0x71, 0x75, 
	0x65, 0x6e, 0x74, 0x69, 0x61, 0x6c, 0x2f, 0x66, 0x6c, 0x61, 0x74, 0x74, 
	0x65, 0x6e, 0x2f, 0x43, 0x6f, 0x6e, 0x73, 0x74, 0x00, 0x00, 0x00, 0x00, 
	0x64, 0xfe, 0xff, 0xff, 0x6e, 0xff, 0xff, 0xff, 0x04, 0x00, 0x00, 0x00, 
	0x28, 0x00, 0x00, 0x00, 0x97, 0x85, 0x9b, 0xbb, 0x91, 0x74, 0xbb, 0xbd, 
	0x8e, 0xdf, 0x9a, 0xbb, 0xa7, 0x8a, 0x12, 0x3d, 0x1c, 0x8f, 0x0a, 0xbd, 
	0x9e, 0x0e, 0x97, 0x3b, 0xf9, 0xe9, 0xf8, 0x3c, 0xf8, 0xd7, 0x0b, 0x3d, 
	0xa4, 0x63, 0x41, 0x3c, 0xe6, 0xd6, 0xaa, 0x3c, 0x6e, 0xff, 0xff, 0xff, 
	0x10, 0x00, 0x00, 0x00, 0x03, 0x00, 0x00, 0x00, 0x10, 0x00, 0x00, 0x00, 
	0x48, 0x00, 0x00, 0x00, 0x01, 0x00, 0x00, 0x00, 0x0a, 0x00, 0x00, 0x00, 
	0x30, 0x00, 0x00, 0x00, 0x73, 0x65, 0x71, 0x75, 0x65, 0x6e, 0x74, 0x69, 
	0x61, 0x6c, 0x2f, 0x64, 0x65, 0x6e, 0x73, 0x65, 0x2f, 0x42, 0x69, 0x61, 
	0x73, 0x41, 0x64, 0x64, 0x2f, 0x52, 0x65, 0x61, 0x64, 0x56, 0x61, 0x72, 
	0x69, 0x61, 0x62, 0x6c, 0x65, 0x4f, 0x70, 0x2f, 0x72, 0x65, 0x73, 0x6f, 
	0x75, 0x72, 0x63, 0x65, 0x00, 0x00, 0x00, 0x00, 0x04, 0x00, 0x06, 0x00, 
	0x04, 0x00, 0x00, 0x00, 0x00, 0x00, 0x06, 0x00, 0x08, 0x00, 0x04, 0x00, 
	0x06, 0x00, 0x00, 0x00, 0x04, 0x00, 0x00, 0x00, 0x20, 0x00, 0x00, 0x00, 
	0xd8, 0x1d, 0x41, 0x3e, 0x05, 0x49, 0xbb, 0x3e, 0x7d, 0x53, 0xde, 0x3e, 
	0x39, 0xc7, 0xab, 0x3d, 0xe2, 0xf2, 0xe2, 0x3e, 0xb7, 0xb0, 0xe6, 0x3e, 
	0xe2, 0x22, 0x15, 0x3e, 0x03, 0x5e, 0x6e, 0x3e, 0x00, 0x00, 0x0e, 0x00, 
	0x14, 0x00, 0x04, 0x00, 0x00, 0x00, 0x08, 0x00, 0x0c, 0x00, 0x10, 0x00, 
	0x0e, 0x00, 0x00, 0x00, 0x10, 0x00, 0x00, 0x00, 0x02, 0x00, 0x00, 0x00, 
	0x10, 0x00, 0x00, 0x00, 0x44, 0x00, 0x00, 0x00, 0x01, 0x00, 0x00, 0x00, 
	0x08, 0x00, 0x00, 0x00, 0x31, 0x00, 0x00, 0x00, 0x73, 0x65, 0x71, 0x75, 
	0x65, 0x6e, 0x74, 0x69, 0x61, 0x6c, 0x2f, 0x63, 0x6f, 0x6e, 0x76, 0x32, 
	0x64, 0x2f, 0x42, 0x69, 0x61, 0x73, 0x41, 0x64, 0x64, 0x2f, 0x52, 0x65, 
	0x61, 0x64, 0x56, 0x61, 0x72, 0x69, 0x61, 0x62, 0x6c, 0x65, 0x4f, 0x70, 
	0x2f, 0x72, 0x65, 0x73, 0x6f, 0x75, 0x72, 0x63, 0x65, 0x00, 0x00, 0x00, 
	0x90, 0xff, 0xff, 0xff, 0x14, 0x00, 0x18, 0x00, 0x04, 0x00, 0x00, 0x00, 
	0x08, 0x00, 0x0c, 0x00, 0x10, 0x00, 0x00, 0x00, 0x00, 0x00, 0x14, 0x00, 
	0x14, 0x00, 0x00, 0x00, 0x14, 0x00, 0x00, 0x00, 0x01, 0x00, 0x00, 0x00, 
	0x20, 0x00, 0x00, 0x00, 0x44, 0x00, 0x00, 0x00, 0x2c, 0x00, 0x00, 0x00, 
	0x04, 0x00, 0x00, 0x00, 0x01, 0x00, 0x00, 0x00, 0x08, 0x00, 0x00, 0x00, 
	0x08, 0x00, 0x00, 0x00, 0x01, 0x00, 0x00, 0x00, 0x0c, 0x00, 0x00, 0x00, 
	0x63, 0x6f, 0x6e, 0x76, 0x32, 0x64, 0x5f, 0x69, 0x6e, 0x70, 0x75, 0x74, 
	0x00, 0x00, 0x00, 0x00, 0x04, 0x00, 0x00, 0x00, 0xff, 0xff, 0xff, 0xff, 
	0x08, 0x00, 0x00, 0x00, 0x08, 0x00, 0x00, 0x00, 0x01, 0x00, 0x00, 0x00, 
	0xfc, 0xff, 0xff, 0xff, 0x04, 0x00, 0x04, 0x00, 0x04, 0x00, 0x00, 0x00
};
const int digits_model_len = 13440;
